▁, 848360285
▁. 790813376
▁the 489001078
▁and 274386452
▁of 252999444
▁to 247704019
▁a 222478338
▁in 176238667
▁' 131118075
▁- 120968767
▁is 112736337
▁I 108866803
▁" 99825604
▁và 97480077
▁that 92166405
▁was 90362617
▁của 89666243
▁for 88075000
▁có 82361449
▁it 80617449
▁là 72768769
▁s 71449491
▁with 69696513
▁The 68122757
▁( 66348860
▁các 65972297
▁on 65371221
▁) 62431256
▁this 60562838
▁as 60550149
▁được 59820293
▁cho 57233188
▁book 55163943
▁trong 54447142
▁không 53197717
▁với 51947495
▁một 51796898
▁người 45768285
▁he 45322094
▁you 45064032
▁đã 44870971
▁his 44809212
▁: 42644497
▁an 41727560
▁by 41371029
▁are 41274328
▁at 41144836
▁from 41039711
▁be 39633051
▁những 39560056
▁have 38902227
▁but 38724986
▁her 38264201
▁not 36848756
▁để 35498723
▁công 32652260
▁này 31914052
▁thể 30672861
▁đến 29000535
▁khi 28926827
▁has 28632700
▁ra 28144823
▁về 27996945
▁t 27942620
▁`` 27606086
▁ở 27428460
▁one 27123804
▁she 26976041
▁'' 26861547
▁had 26344822
▁my 26093370
▁sẽ 25988208
▁tại 25857524
▁cũng 25846511
▁or 25625730
▁vào 25344326
▁như 25165816
▁? 25132851
▁đó 25059762
▁làm 24872805
▁từ 24826786
▁so 24782551
▁nhiều 24534524
▁i 24529987
▁who 24308507
▁trên 24227086
▁! 24183401
▁about 24154746
▁all 23995760
▁năm 23681647
▁were 23425634
▁hiện 23221064
▁do 23141645
▁they 23054813
▁more 22929390
▁việc 22917155
▁It 22873930
▁read 22844687
▁bị 22451286
▁; 22235191
▁sự 22203219
▁đầu 21989893
▁lại 21970286
▁nhà 21865770
▁bạn 21331969
▁động 21104788
▁will 21005983
▁their 20814605
▁nước 20508177
▁số 20471300
▁hàng 20450588
▁phải 20341702
▁This 20148601
▁out 20120583
▁would 20078264
▁thành 19999568
▁said 19880105
▁me 19840520
▁đồng 19760635
▁up 19532909
▁can 19401122
▁ngày 19377898
▁which 19146395
▁chỉ 18974008
▁quan 18756098
▁định 18590070
▁what 17784287
▁học 17685552
▁thì 17682239
▁like 17670658
▁nhất 17616446
▁nhân 17504379
▁chính 17418636
▁2 17376695
▁been 17095652
▁1 17017564
▁gia 16951744
▁story 16881197
- 16871967
▁hơn 16843884
▁dụng 16676958
▁mà 16511594
▁In 16411568
▁Nam 16198354
▁tôi 16183261
▁trường 16135895
▁hợp 16085442
▁time 15930547
▁còn 15866797
▁first 15851377
▁when 15810536
▁thời 15785058
▁into 15737880
▁giá 15586839
▁A 15541968
▁also 15496874
▁just 15418508
▁cơ 15417151
s 15391062
▁thực 15292217
▁đi 15168453
▁sản 14949785
▁điều 14920528
▁ông 14848484
▁Việt 14774942
▁theo 14735311
▁there 14573922
▁cao 14515801
▁thông 14424629
▁rất 14371160
▁sinh 14273664
▁sau 14273131
▁con 14178151
▁mình 14104695
▁He 14051174
▁nhưng 14021991
▁nên 14012541
▁other 13985921
▁biết 13968192
▁mới 13874583
▁đang 13831054
▁some 13828106
▁3 13793777
▁them 13714102
▁we 13698987
▁hành 13687807
▁than 13633737
▁dân 13628523
▁vụ 13622323
▁thế 13554438
▁very 13543989
▁its 13500846
▁him 13487609
▁phát 13454498
▁viên 13311700
▁hình 13088806
▁cùng 13081031
▁if 13020635
▁lý 12867651
▁how 12810472
▁qua 12737317
▁trình 12615660
▁cả 12597214
▁well 12519401
▁nhận 12448256
▁lượng 12366767
▁cách 12330784
▁two 12270923
▁đối 12035965
▁% 12033111
▁good 12023067
▁lên 11884276
▁after 11882477
▁could 11770363
▁no 11710906
▁cấp 11654934
▁only 11640699
▁nghiệp 11630440
▁tin 11629373
▁bộ 11567957
▁over 11513491
▁tế 11485100
▁your 11468845
▁hội 11448395
▁xuất 11355919
▁trước 11312520
▁khác 11283798
▁chức 11266006
▁năng 11184248
▁/ 10979570
▁xe 10963784
▁điểm 10884541
▁đây 10872514
▁tư 10860856
▁tiếp 10799418
▁get 10766208
▁chúng 10744034
▁tác 10708118
▁kết 10646669
▁people 10643338
. 10586357
▁sử 10538631
▁vì 10519918
▁love 10440434
▁much 10384502
▁5 10383867
▁khách 10351620
▁đường 10304480
▁anh 10303952
▁kinh 10257918
▁great 10243522
▁cầu 10215281
▁cần 10195895
▁tình 10153105
▁nay 10057549
▁nói 10045100
▁new 10034279
▁life 10009326
▁toàn 9960721
▁bảo 9945863
▁tăng 9936690
▁many 9921988
▁year 9870150
▁4 9868481
▁books 9857144
▁did 9853214
▁way 9774493
▁tâm 9743923
▁really 9729760
▁tới 9704380
▁gian 9660080
▁chất 9594548
▁độ 9584433
▁Quốc 9563239
▁because 9561057
▁giải 9547892
▁phẩm 9496110
▁through 9490140
▁máy 9470023
▁mặt 9447566
▁... 9436007
▁tạo 9435171
▁chủ 9386595
▁tự 9380488
▁nào 9344849
▁thấy 9343120
▁vẫn 9326977
▁then 9310816
▁hay 9188944
▁đề 9181778
▁years 9176670
▁back 9173921
▁hai 9148579
▁vị 9096606
▁dự 9082266
▁most 9064515
▁lớn 9054617
▁bằng 9054351
▁nhiên 9047330
▁Công 9044498
▁án 8954017
▁phần 8908254
▁triển 8890598
▁quả 8870420
▁Trung 8851911
▁tháng 8850784
▁down 8794819
▁even 8786107
▁lực 8713151
▁doanh 8705381
▁cuộc 8691752
▁phòng 8669355
▁n 8669213
▁series 8646767
▁giới 8603688
▁thị 8596760
▁ý 8596144
▁bản 8593714
▁thiết 8569490
▁báo 8559172
▁10 8539441
▁hiệu 8522931
▁tiền 8515837
▁thường 8456168
▁know 8449853
▁S 8439138
▁tính 8427267
t 8423726
▁họ 8409014
▁ta 8372790
▁hệ 8273322
▁pháp 8264149
▁reading 8216378
▁characters 8184487
▁made 8178341
▁rằng 8159876
▁where 8158087
▁thống 8118403
▁loại 8112285
▁em 8103673
▁đại 8033688
▁giúp 8015515
▁xã 7947666
▁Hà 7946149
▁tốt 7907120
▁m 7882131
▁any 7878574
▁now 7829442
▁bệnh 7804252
▁trọng 7794451
▁ảnh 7791824
▁being 7734956
▁tập 7730530
▁Trong 7686831
▁trị 7666057
▁our 7627519
▁thức 7625547
▁quốc 7623858
▁before 7613991
▁giao 7586603
▁make 7574225
▁phương 7563391
▁ty 7547976
▁tài 7536914
▁quá 7533096
▁khu 7522231
▁sống 7498906
▁điện 7482672
▁may 7473844
▁tỉnh 7454387
▁địa 7451418
▁chưa 7450371
▁liên 7450124
▁bán 7431598
▁these 7426556
▁yêu 7420292
▁ăn 7398944
▁But 7393125
▁author 7368758
▁thu 7364937
▁tiêu 7364027
▁lần 7344266
▁Bộ 7341725
▁hoạt 7277603
▁see 7263842
▁world 7261568
▁tổ 7247613
▁thương 7231787
▁thi 7216605
▁work 7195841
▁Mỹ 7189979
▁hoặc 7187480
▁hóa 7154473
▁quyết 7141365
▁quy 7114994
▁6 7112030
▁cô 7080578
▁dùng 7053774
▁trở 6991061
▁Theo 6984522
▁kế 6954998
▁& 6939069
▁cảm 6930471
▁too 6909514
▁such 6897912
▁Nguyễn 6876721
▁vậy 6808786
▁dịch 6804613
▁think 6788405
▁thủ 6750854
▁biệt 6718341
▁đất 6706992
▁tham 6704098
▁those 6692823
▁đạo 6684214
m 6679151
▁found 6660300
▁đơn 6659242
▁little 6658492
▁trung 6631536
▁off 6622275
▁end 6590191
▁đều 6586496
' 6515888
/ 6512193
▁vấn 6505450
▁trang 6497516
▁vực 6477037
▁while 6466750
▁still 6451429
▁mang 6439196
▁gì 6437740
▁last 6428330
▁$ 6406506
▁tục 6397753
▁She 6393808
▁dựng 6391806
▁sở 6379115
▁mua 6348027
▁between 6338601
▁diễn 6320097
▁đưa 6305113
▁want 6300544
▁hoàn 6297925
▁tích 6293941
▁đội 6242345
▁U 6231946
▁tuổi 6224448
▁muốn 6215351
▁bất 6204289
▁tay 6197935
▁giảm 6197891
▁ngoài 6189801
▁chế 6172544
▁giờ 6164884
▁tra 6162917
▁mạnh 6144896
▁tìm 6117107
▁next 6102932
▁nhau 6101969
▁am 6096450
▁own 6088934
▁chọn 6068152
▁đổi 6060918
▁Anh 6058977
▁triệu 6004372
▁bên 6002774
▁đẹp 5995561
▁three 5990683
▁There 5988734
▁xây 5984328
▁chiến 5973533
▁văn 5962375
▁Nội 5923066
▁vừa 5918381
▁gần 5910541
▁quyền 5890905
▁long 5879173
▁thứ 5877360
▁7 5876572
▁say 5869530
▁sáng 5862818
▁New 5861452
▁each 5859804
▁chuyển 5858818
▁sĩ 5844874
▁find 5842245
▁never 5836591
▁đình 5834967
▁family 5834756
▁part 5822786
▁If 5821676
▁trẻ 5802760
▁both 5800211
▁bắt 5787753
▁thêm 5771167
▁old 5767047
▁go 5754926
▁khoảng 5748108
▁khó 5744021
▁going 5737371
▁dẫn 5698306
▁ứng 5645390
▁bao 5604591
▁day 5599127
▁đánh 5598374
▁put 5590459
▁phố 5580865
▁khai 5560246
▁nếu 5550380
▁written 5549790
▁trưởng 5537742
▁best 5524507
▁should 5518762
▁đặc 5504250
▁8 5501003
▁tiếng 5482263
▁sức 5459454
▁kiến 5435897
▁chuyên 5434685
▁20 5431502
▁right 5430450
▁As 5426656
▁don 5423570
▁us 5418180
▁around 5417030
▁trí 5411895
▁thân 5380209
▁sát 5361855
▁gây 5360473
▁tượng 5342736
▁cái 5334605
▁tỷ 5330162
▁does 5314417
▁khiến 5312746
▁rồi 5309558
▁mức 5309199
▁lập 5303222
▁another 5294926
▁nó 5285126
▁bàn 5281804
▁used 5274979
▁Văn 5268225
▁take 5262801
▁diện 5252882
▁thuộc 5250336
▁kỳ 5250317
▁B 5248230
▁nghệ 5232565
▁phục 5232394
▁sách 5227835
▁bà 5225799
▁Các 5210178
▁Tuy 5195886
▁nhiệm 5195328
▁C 5181299
▁liệu 5147387
▁hướng 5125609
▁nơi 5124274
▁same 5122645
▁cứu 5091006
▁bình 5089361
▁again 5085563
▁man 5062487
▁vật 5060109
ing 5042809
▁An 5042285
▁And 5022570
a 4982906
▁trợ 4969513
▁since 4967934
▁chiếc 4965108
▁hết 4962098
▁few 4948318
▁từng 4920259
▁lợi 4919400
▁12 4915827
▁ban 4913410
▁D 4905480
▁quân 4903967
▁mọi 4895823
▁vệ 4888913
▁kiểm 4872550
▁giữa 4871774
▁T 4868638
▁cảnh 4865685
▁chi 4862326
▁use 4860774
i 4859047
▁đấu 4858307
▁9 4844374
▁giáo 4821496
▁during 4817430
▁tiên 4813262
▁hộ 4810687
th 4798114
▁lời 4791263
▁lúc 4786742
▁re 4783892
▁cáo 4773723
▁against 4764616
▁truyền 4763351
▁chứng 4761810
▁bố 4760317
▁second 4751558
▁nguyên 4743684
▁better 4742036
▁every 4738031
▁luôn 4727195
▁nội 4726469
▁biến 4725423
▁thay 4724581
▁phụ 4721542
▁cá 4716153
▁They 4707992
▁nhập 4698824
▁tiến 4698352
▁tên 4692553
▁nhỏ 4686061
▁lịch 4685917
▁vi 4680698
▁TP 4678337
▁help 4677045
▁nữ 4672477
▁ngay 4660854
▁things 4648616
▁thought 4622492
▁sao 4621768
▁home 4614397
▁Bình 4610373
▁quản 4609440
▁chí 4604142
▁phí 4591708
▁M 4565143
▁Sau 4561321
▁thuật 4558526
▁ve 4550548
▁xem 4550482
▁đặt 4548992
▁kiện 4548221
▁bài 4544758
▁chị 4518668
▁15 4515340
▁huyện 4513354
▁thích 4512231
▁until 4511387
▁something 4506068
▁here 4503316
▁under 4467966
▁mẹ 4465088
▁phân 4461406
▁mỗi 4446273
▁thanh 4443817
▁đoàn 4404842
▁tiết 4403246
▁need 4400331
▁got 4397258
▁Mr 4387386
▁30 4379409
▁different 4370155
▁chung 4357923
▁cổ 4357916
▁bỏ 4355748
▁đạt 4345239
▁đủ 4331849
h 4328137
▁dài 4326488
▁lot 4315829
▁cung 4304215
▁mắt 4303096
▁American 4296514
▁come 4285093
▁Một 4280846
▁We 4255589
▁d 4226871
▁giữ 4222599
▁da 4221939
▁My 4204739
▁phạm 4203966
▁xác 4193882
▁xử 4185662
▁nữa 4178379
▁màu 4167228
▁nhanh 4154623
▁bởi 4141562
▁biểu 4140386
▁tranh 4127690
▁bay 4127000
▁look 4111828
▁ngành 4110041
▁H 4107564
▁tử 4106682
▁away 4101102
▁vô 4099113
▁left 4098542
▁character 4093170
▁nghị 4087318
▁du 4080229
▁didn 4080001
▁though 4076934
▁11 4072619
▁Đại 4062898
▁luật 4058188
▁game 4042261
▁place 4038528
▁Thanh 4033261
▁recommend 4030569
▁Chính 4019829
er 4019789
▁Nếu 4016707
o 4006896
▁chuyện 3997250
▁gặp 3989251
▁đảm 3986151
▁phủ 3981152
▁chơi 3980558
▁loved 3979277
▁Tổng 3973608
▁rõ 3962393
d 3950253
▁trận 3948590
▁without 3944061
▁mục 3942779
▁K 3930573
▁hạn 3917499
▁always 3909736
▁cửa 3907250
▁must 3903813
▁feel 3902662
▁set 3894755
▁times 3893797
▁dễ 3893076
▁bóng 3892192
▁including 3885323
▁tổng 3872981
▁You 3869184
▁later 3865739
▁real 3860340
▁khả 3856210
ed 3854961
▁ca 3849806
▁Ông 3849119
▁school 3848089
▁nghiệm 3845235
▁L 3841707
▁P 3833724
▁Nhà 3833654
▁mạng 3825063
▁chuẩn 3820980
▁high 3820730
▁mất 3813811
▁vùng 3811327
▁N 3804692
▁novel 3801365
▁Minh 3799420
▁took 3796472
▁children 3796088
▁000 3793422
▁government 3788401
▁enough 3782360
▁writing 3781153
▁đời 3776828
▁give 3775962
▁tinh 3771590
▁ký 3764961
▁khí 3759158
▁enjoyed 3752541
▁information 3738690
▁nguồn 3695908
▁trực 3693956
▁hard 3689907
▁chia 3689617
▁R 3688153
▁On 3679407
▁mở 3678185
▁hưởng 3671857
▁ever 3666224
▁tất 3665045
▁tương 3655259
▁stories 3654944
▁chống 3652353
▁sang 3647629
▁looking 3642281
▁history 3638792
▁For 3637406
▁hoạch 3623997
▁chương 3620179
▁thật 3616284
▁why 3612133
▁yếu 3607422
2 3607003
▁Khi 3605780
▁nổi 3604735
▁interesting 3603643
▁sắc 3599288
▁biển 3598215
▁lòng 3595442
▁G 3594350
▁dưới 3591536
▁several 3588472
▁căn 3571891
▁đúng 3571411
▁nhìn 3565176
▁United 3560075
▁cạnh 3557569
▁Những 3556695
▁ấy 3552775
▁phía 3547625
▁chân 3543375
y 3542983
▁giả 3536005
▁vốn 3534966
▁Với 3532347
▁áp 3532042
▁cây 3526443
▁ít 3524146
▁dù 3518896
▁viện 3515441
▁gọi 3511639
▁vận 3510091
▁ai 3509392
▁100 3507685
▁keep 3506746
▁Đức 3502250
▁hỏi 3496393
in 3492667
▁came 3490184
▁hiểu 3487122
▁cứ 3482643
▁told 3461751
▁hoa 3455899
▁lấy 3455131
▁phong 3454683
▁known 3453634
▁trả 3450841
▁tịch 3450289
▁càng 3446897
▁minh 3444894
▁Tôi 3444185
▁_ 3440249
▁Chủ 3434559
▁xuống 3424407
▁V 3415740
▁small 3407461
▁together 3406780
▁cuối 3405567
▁four 3400679
▁easy 3394776
▁khá 3394226
▁danh 3393439
▁won 3392623
▁16 3386369
▁makes 3382282
▁Hội 3381070
▁head 3376070
▁hữu 3371483
▁gồm 3349025
▁hỗ 3343775
▁trạng 3341896
▁kể 3337214
▁called 3324716
▁might 3322560
▁đồ 3316372
▁far 3312645
▁y 3288559
▁cố 3285828
▁kỹ 3283140
▁point 3282524
▁hồ 3271851
▁bé 3265819
▁lưu 3261769
▁sân 3256070
▁tối 3252447
▁After 3246800
ers 3246584
▁cực 3245957
▁bit 3241827
▁đầy 3239420
▁rộng 3235518
en 3213783
es 3213601
▁thư 3212857
▁câu 3209441
▁khẩu 3208309
▁state 3207652
▁along 3206473
▁others 3203334
▁Đông 3182362
▁Có 3181942
an 3180687
▁Hải 3179455
▁thuốc 3165863
▁show 3164518
▁Không 3155044
▁team 3153617
▁When 3145994
▁felt 3141223
▁men 3130736
▁F 3128531
▁nghĩa 3114603
▁dục 3106324
▁phim 3103192
▁lãnh 3098975
▁young 3096055
▁full 3087441
▁Nhưng 3087435
▁anyone 3084693
▁khoa 3082784
▁vàng 3079066
▁đoạn 3073175
▁Thành 3068487
▁18 3066948
▁đáng 3064338
▁start 3063883
▁50 3057881
▁One 3038696
▁million 3038552
▁top 3033415
▁đá 3023910
▁gái 3019654
▁14 3013574
▁mẫu 3013523
▁number 3010653
▁started 3010365
▁Đây 3008515
▁So 3006916
▁đa 3005464
▁thing 3003627
▁name 3001977
▁early 3001693
▁women 2999624
▁group 2997882
▁dung 2994937
▁sure 2993356
▁13 2989519
▁past 2984273
▁Bắc 2983861
▁based 2973795
▁nạn 2972927
▁di 2971562
▁His 2968927
▁xảy 2961185
▁Thị 2956670
▁tàu 2955214
▁company 2951489
▁Ban 2950275
▁wanted 2946767
▁became 2945991
▁business 2943542
▁phép 2940817
▁country 2940546
▁line 2934558
on 2931695
▁tiện 2929327
▁riêng 2924365
▁ba 2920886
▁chồng 2917290
▁World 2912384
▁nâng 2911071
▁son 2907998
▁yet 2903372
▁khăn 2899697
▁nhằm 2889063
▁tưởng 2888816
▁đăng 2887834
▁Người 2887677
▁At 2887564
▁lao 2886499
▁John 2881510
▁đóng 2878487
▁Long 2876877
▁news 2874648
▁quý 2872389
▁went 2872292
▁Hoàng 2870412
▁main 2870072
▁Nhật 2868066
▁reader 2865162
▁độc 2864856
▁nhóm 2862492
▁Sơn 2862439
▁Nga 2861329
▁once 2855392
▁tố 2854321
▁wait 2853835
▁tướng 2850635
▁season 2849204
▁side 2843777
▁luận 2841805
▁thần 2841602
▁* 2835242
▁17 2833763
▁days 2833261
▁York 2828303
▁cụ 2826194
▁says 2824950
▁review 2823047
▁vòng 2821545
▁done 2817837
▁fun 2813858
▁five 2813017
▁lựa 2804795
▁However 2797053
▁chịu 2796235
▁All 2792176
▁nghĩ 2788023
▁What 2787690
▁phù 2787337
▁having 2786887
▁able 2778533
▁Ngoài 2777138
▁already 2775270
▁xét 2773180
▁making 2765488
▁môi 2763060
▁Thủ 2756295
▁job 2755387
▁J 2752909
▁tải 2746363
▁trò 2745495
▁That 2736352
▁Obama 2735833
▁quận 2735745
▁góp 2735335
▁lớp 2734107
▁almost 2733897
▁Đồng 2733233
▁thoại 2731570
▁heart 2729365
▁cư 2728943
▁USD 2722492
▁short 2720600
▁person 2719002
▁vợ 2717600
▁money 2710383
▁Y 2709817
▁hồi 2709198
▁trái 2703132
▁week 2700231
▁nằm 2696248
▁viết 2692952
▁woman 2692637
▁sơ 2689395
▁become 2686080
▁âm 2683684
▁page 2676500
▁E 2674594
▁ngân 2669467
▁trách 2669286
▁city 2664047
▁often 2663377
e 2661450
▁25 2659412
▁hand 2658032
▁percent 2657801
▁e 2656820
▁hôm 2656070
▁least 2653956
▁sẻ 2646824
▁case 2646313
▁forward 2645484
▁chạy 2633615
▁war 2626007
▁0 2625767
▁Tây 2624412
▁< 2624178
▁let 2623997
▁night 2623804
▁phối 2621200
▁Thái 2613057
▁tín 2612359
▁tấn 2610758
▁dành 2607968
▁play 2605814
▁nông 2602604
▁thắng 2598966
▁tuần 2597248
▁toán 2595708
▁chiều 2594338
▁vui 2583849
▁hòa 2582571
▁hậu 2580255
▁ngoại 2577488
▁father 2576807
▁God 2576473
▁thiếu 2575461
▁Điều 2574482
▁States 2569098
▁understand 2566171
▁free 2565788
▁given 2564687
▁University 2563632
▁everything 2563003
▁St 2561729
▁bước 2560426
▁plot 2557661
▁public 2556675
▁nghe 2551249
▁áo 2551191
▁lo 2550784
▁less 2547839
▁big 2545453
▁lâu 2539110
▁received 2535083
▁doesn 2529971
▁face 2529210
▁Từ 2526520
▁trying 2525765
▁Trần 2520947
▁death 2519512
u 2518814
is 2518524
▁ghi 2517932
al 2516401
▁half 2515708
▁fact 2511462
▁đông 2510240
▁đàn 2509618
▁area 2508002
▁friends 2507811
▁Trước 2507306
▁believe 2499797
▁someone 2498744
▁xa 2495993
▁thiện 2495810
▁Dương 2494175
▁eyes 2492346
▁khỏe 2490126
▁cộng 2485179
▁chắc 2484920
▁Hồ 2483212
▁using 2480389
▁lệ 2480001
▁mùa 2479506
▁former 2477677
▁mô 2476974
▁chú 2476917
▁Trường 2474401
ly 2473967
▁tuyển 2473287
▁Do 2466891
▁chết 2466463
▁bad 2466067
1 2461702
▁Hiện 2460326
▁Phó 2459174
▁vọng 2456140
▁de 2455475
▁đứng 2452038
▁nhạc 2451482
▁> 2448405
▁dòng 2447220
▁đôi 2443867
▁khỏi 2439500
▁Lê 2436888
▁anything 2433071
▁mother 2432449
▁film 2428555
▁song 2422936
▁nam 2420035
▁2018 2417630
▁pages 2417534
▁đảo 2412074
▁phá 2411835
▁Tại 2404328
▁nghiên 2403548
▁house 2403064
▁phản 2399080
▁ll 2398144
▁đô 2393625
▁held 2388097
▁đốc 2387380
▁actually 2383409
k 2382012
▁xin 2380930
▁nhu 2380579
▁W 2380041
▁Ngày 2377708
▁môn 2376069
▁Vì 2372370
▁thuận 2372292
▁age 2370243
▁suất 2365628
▁dưỡng 2363900
▁UBND 2362764
▁especially 2359600
▁non 2359546
▁Bạn 2357637
▁thất 2353974
▁City 2353730
▁power 2353700
▁19 2351016
▁began 2350169
▁2010 2346589
▁within 2343730
▁vài 2340562
▁run 2338539
▁lost 2337944
▁getting 2335780
▁Great 2334803
▁lễ 2328146
▁nothing 2327082
▁change 2324564
▁important 2323366
▁third 2323352
▁tuyến 2323073
n 2317304
▁giống 2315340
▁gave 2315050
▁lĩnh 2313876
▁Để 2309007
▁phiên 2307699
▁quite 2307599
▁per 2303006
▁mind 2300083
▁true 2295231
▁system 2289629
▁bác 2289013
re 2285422
▁whole 2283164
▁nền 2283055
▁2017 2281526
as 2275996
▁cán 2274074
ar 2272905
▁24 2271159
▁class 2268010
▁live 2265837
▁enjoy 2263882
▁course 2263477
▁gửi 2258736
▁dầu 2257667
▁phút 2257203
▁đau 2251232
▁care 2249689
▁Hoa 2246494
▁khoản 2246392
▁himself 2244992
▁human 2241210
▁born 2238448
▁words 2238298
3 2238231
▁giám 2235900
▁hút 2235542
▁tell 2232766
▁order 2231102
▁O 2230694
▁Bản 2228052
▁2016 2226013
▁đêm 2221538
▁40 2221223
▁kind 2220789
▁nghề 2220266
▁following 2220054
▁hại 2217511
▁Liên 2214124
▁daughter 2207470
▁ưu 2206232
▁buổi 2203656
▁chữa 2203020
▁Chúng 2200649
▁nguy 2199242
▁mại 2196169
▁sâu 2196165
▁South 2196107
▁friend 2196046
▁May 2195400
▁seen 2192039
▁cải 2190728
A 2190493
▁đâu 2188349
▁21 2183218
▁tội 2181231
▁action 2178738
▁knew 2177251
▁chấp 2176660
▁vai 2176200
▁thấp 2172754
▁town 2171826
▁hãy 2170207
▁comes 2169294
▁hiểm 2168089
▁uống 2162878
▁behind 2159516
▁tức 2155832
▁style 2154723
▁myself 2153605
▁hope 2151183
▁lives 2149854
▁2015 2149793
▁personal 2146018
▁child 2142159
▁While 2141876
▁kéo 2139586
▁2009 2137860
▁US 2137374
▁đào 2133515
▁] 2131772
l 2123843
▁played 2121771
▁2008 2121195
▁kích 2117622
▁released 2117564
▁kiếm 2116583
▁tầng 2115797
▁rather 2115014
▁seems 2114349
▁months 2111548
▁tai 2111540
▁across 2110840
▁highly 2110341
▁body 2105251
▁đẩy 2102879
▁ago 2102681
▁large 2102101
▁mong 2098782
▁Ngọc 2097217
▁takes 2092374
▁video 2089493
▁today 2088518
▁Sở 2082086
ie 2082041
▁No 2078561
▁support 2076353
▁local 2075893
▁dạng 2075015
ia 2069489
▁police 2067650
▁liked 2065506
▁giấy 2063912
▁bổ 2063793
▁British 2063557
el 2063274
▁however 2062706
c 2060918
▁[ 2058639
▁open 2058028
▁đáp 2054423
▁Quảng 2053600
▁cử 2051529
os 2051424
▁National 2049195
C 2049179
man 2046143
▁vượt 2043399
▁+ 2042213
▁political 2041371
▁trai 2039939
▁future 2037092
▁kỷ 2035799
▁kept 2035425
us 2030973
▁cường 2030192
▁working 2029782
▁major 2029600
▁sư 2026710
▁xúc 2026312
▁wonderful 2025217
S 2021404
g 2020854
▁worth 2014498
▁thuế 2009729
▁ngôi 2007924
▁Hàn 1999533
▁Pháp 1998930
▁thuê 1997170
▁music 1996868
▁chẳng 1995850
▁p 1993311
▁xanh 1993271
▁duy 1992753
▁bought 1990247
▁asked 1990168
▁lộ 1989562
▁nặng 1988186
▁learn 1987758
▁trắng 1987418
▁everyone 1986636
▁ích 1983741
8 1983134
▁Lan 1982083
▁War 1981295
▁Đảng 1980621
▁strong 1980437
▁Not 1977749
▁car 1974815
▁nuôi 1970663
▁final 1968272
▁expected 1967545
▁members 1967362
▁experience 1966648
▁interest 1965671
▁tránh 1963628
▁ô 1962176
▁2014 1960793
▁vẻ 1959894
▁works 1958364
▁hạ 1956756
▁tuyên 1954980
▁close 1950602
▁nhiệt 1947898
▁light 1947513
▁Phú 1945517
▁try 1945352
▁thẩm 1941802
▁single 1941666
▁nhớ 1939362
▁xuyên 1937428
▁hát 1937394
▁Xuân 1935234
▁món 1934973
▁Hòa 1932612
b 1931913
▁America 1931839
▁girl 1929997
▁Và 1928094
or 1926432
at 1923464
▁châu 1923445
▁buy 1922518
▁thủy 1921537
▁thảo 1920852
▁late 1920747
▁President 1920280
▁water 1918857
▁couldn 1917852
▁Kim 1917224
▁chỗ 1917011
▁sửa 1916603
▁definitely 1912431
▁probably 1910551
▁taken 1910529
▁22 1910036
▁niên 1909436
▁hãng 1907799
▁chỉnh 1907611
▁level 1906005
▁beginning 1905372
▁favorite 1903536
▁sớm 1900437
▁building 1896646
▁near 1896582
▁military 1894403
▁doing 1894187
▁six 1893934
▁To 1891947
▁deal 1891016
▁led 1888947
▁points 1886948
▁trời 1886732
▁sense 1886700
▁needed 1885840
ic 1884718
▁b 1881318
▁among 1880850
4 1879704
▁room 1878942
▁idea 1878931
▁saw 1876352
▁Her 1876046
▁c 1873718
▁fan 1870384
▁March 1870363
▁2012 1863206
▁living 1862710
B 1861766
▁turned 1860382
▁giác 1860005
▁clear 1858495
▁month 1857116
▁khởi 1856810
▁stop 1856433
▁ending 1856040
D 1852770
▁relationship 1851463
z 1851058
▁taking 1850385
▁wife 1848525
▁North 1845828
▁nghỉ 1842942
▁ngờ 1842723
▁With 1841450
▁huy 1839864
▁khám 1837343
▁thúc 1833283
▁House 1831283
▁= 1829051
▁khẳng 1825407
▁These 1825205
▁ngủ 1824969
▁due 1824693
▁Some 1824669
▁perfect 1822150
▁2011 1821867
▁health 1819405
▁chapter 1815336
▁giản 1811497
ch 1810940
▁Thông 1808629
▁died 1806309
▁2013 1805649
▁law 1805644
▁trao 1805488
▁tuyệt 1805049
▁service 1803881
am 1803233
▁nghiêm 1802694
▁Tân 1802184
▁Thế 1799482
▁self 1798750
▁soát 1797829
▁Năm 1797457
p 1795913
▁site 1795269
▁problem 1795207
▁chóng 1791421
▁coming 1790581
▁| 1787900
▁published 1787626
▁kids 1786263
M 1785687
▁students 1785441
▁mặc 1785157
▁looked 1784095
▁nhẹ 1782558
▁romance 1781302
▁Phòng 1781278
▁quanh 1780619
▁nóng 1778369
▁excellent 1778112
le 1777797
▁chăm 1777359
▁cân 1775692
▁Việc 1775404
▁ổn 1773135
▁trì 1769892
▁market 1767123
▁lead 1766580
▁miền 1765912
▁phiếu 1763450
▁rest 1762775
▁London 1761758
▁l 1759806
▁view 1759134
▁màn 1758830
▁23 1758202
▁thăm 1757294
▁2007 1757236
▁pretty 1756474
▁issues 1752098
▁dấu 1749984
▁form 1748856
▁Giang 1748595
▁album 1744308
▁cover 1742570
▁lửa 1739141
▁development 1738633
▁plan 1737026
▁thưởng 1734499
▁June 1734448
▁thái 1733962
▁60 1731447
▁wasn 1730183
▁research 1729002
▁member 1726345
▁finished 1725704
▁đỏ 1724107
▁sai 1722655
▁amazing 1722569
▁ánh 1722484
▁hit 1722160
▁vũ 1721266
▁By 1714236
▁black 1711429
▁khắc 1710915
▁biên 1710204
▁tốc 1709239
▁máu 1709021
▁events 1707018
▁follow 1698926
▁beautiful 1698061
▁Nguyên 1698045
▁party 1695701
▁West 1692497
▁mắc 1690584
▁either 1690035
▁Châu 1688347
▁soon 1687292
▁century 1686078
▁nice 1685947
▁tận 1684333
▁move 1683812
▁dàng 1682705
▁Dr 1679080
▁r 1678795
▁link 1678156
▁Chỉ 1677554
▁happy 1676956
▁ngồi 1676548
6 1676261
▁stars 1672531
▁bức 1672456
▁Washington 1672252
▁chiếm 1671864
▁League 1671861
▁Kỳ 1670793
▁sạch 1670127
▁turn 1668768
▁although 1667098
▁price 1667075
▁couple 1665769
▁thử 1664746
▁gives 1664394
▁rẻ 1664064
▁original 1663398
▁moved 1661311
▁quay 1658022
▁parents 1656852
▁version 1656851
▁chắn 1656701
▁Đà 1656099
T 1655271
5 1652771
▁readers 1652592
▁g 1651686
▁throughout 1651119
▁Bên 1650973
▁whether 1650205
▁nối 1650143
▁January 1648203
▁shows 1648110
▁study 1647282
▁sông 1644753
r 1644296
▁further 1643096
▁giai 1642702
▁khóa 1642695
▁mối 1642283
▁include 1641686
▁Z 1638866
▁April 1638079
▁general 1633627
▁cập 1631765
▁included 1629233
▁Quang 1627598
ist 1627052
▁September 1623854
▁Ch 1621256
▁Á 1621094
▁X 1620973
▁July 1619394
▁China 1615898
▁quán 1614854
▁control 1614296
▁lạnh 1613306
▁title 1612184
▁sex 1611412
▁named 1610618
▁fast 1610282
▁win 1609129
▁call 1609035
▁phạt 1609011
▁food 1608939
▁nghi 1607228
▁co 1606925
▁cháu 1606885
▁instead 1604972
▁2006 1604475
▁Phương 1602840
▁data 1601447
▁wants 1599059
▁English 1598213
▁product 1596743
▁else 1596112
▁subject 1594688
▁worked 1594422
▁phóng 1593684
▁isn 1592625
▁president 1589367
▁ủy 1588950
▁needs 1586425
▁nhờ 1585417
▁copy 1585196
v 1584326
▁siêu 1583962
▁report 1583302
▁Chí 1581031
▁họp 1579695
▁dạy 1578465
et 1575846
▁bày 1575583
▁cánh 1575185
7 1574556
▁chứ 1574164
▁khảo 1574113
▁thiên 1573944
▁example 1573940
▁quần 1573566
▁goes 1573181
▁front 1571681
▁đem 1569640
▁ấn 1568530
▁bảng 1566511
▁quickly 1566401
▁đọc 1565484
▁niệm 1565206
▁seemed 1564479
ian 1562110
▁difficult 1562046
▁luyện 1560798
▁period 1560477
▁possible 1555926
▁kính 1555751
▁writer 1554530
▁leave 1554249
▁thú 1553395
▁bầu 1552649
▁Al 1551600
▁Hồng 1551417
▁gets 1551271
▁hands 1551219
▁dây 1551019
f 1547311
▁killed 1547186
▁phường 1547098
▁State 1546551
▁trải 1545522
▁Giám 1544828
▁October 1544193
▁problems 1543668
▁lạc 1543547
▁buộc 1540476
▁tặng 1540173
st 1538395
▁August 1538284
▁David 1537599
▁finally 1536912
▁thí 1536766
▁thôn 1533847
▁language 1533121
▁Luật 1532390
▁quen 1531429
▁attention 1529025
▁Như 1528585
▁School 1528446
▁word 1528384
▁Ninh 1527450
▁husband 1525760
▁xếp 1525113
▁Cup 1523525
▁air 1523344
▁career 1522379
▁movie 1521434
▁mystery 1520693
▁TV 1520025
▁tộc 1518692
▁inside 1517441
▁role 1516479
▁cấu 1516428
▁national 1515761
▁mái 1515741
▁questions 1514118
▁26 1513893
▁thôi 1513759
G 1513641
▁27 1512512
▁November 1511813
▁loài 1511131
▁Bà 1510961
▁seem 1510045
▁sẵn 1509251
▁available 1508941
▁December 1507691
▁28 1507463
▁phê 1507293
▁hấp 1506965
x 1506184
▁matter 1505692
▁hạt 1505087
▁added 1503766
▁interested 1502842
▁Nhiều 1502501
▁al 1501709
▁Phạm 1501353
▁lẽ 1500916
▁tiểu 1500617
▁sung 1500516
▁ninh 1499926
▁suy 1499630
▁reason 1498057
▁mềm 1497273
▁500 1495183
▁v 1494583
▁write 1493368
▁hours 1493101
it 1492803
▁list 1492295
▁Bảo 1491748
▁art 1491031
▁present 1490944
▁tòa 1490620
▁nhé 1489612
▁program 1487831
▁khối 1486672
▁white 1485878
P 1484735
▁parts 1483529
ate 1483377
▁happened 1481191
▁Man 1479076
▁process 1478701
▁office 1476717
▁built 1474059
▁k 1473689
▁thẳng 1473349
URL 1473342
▁return 1472809
▁chuyến 1471452
▁truly 1470798
> 1470246
▁online 1469061
▁chờ 1468680
▁Đến 1467371
▁cầm 1466484
▁details 1466381
▁wrote 1465639
▁officials 1464728
▁200 1463854
▁kiểu 1463583
▁brought 1462086
▁nợ 1461986
▁trồng 1460467
▁wrong 1460153
▁herself 1459704
▁hạng 1458866
▁reported 1458569
▁mật 1455781
▁hơi 1455737
▁itself 1455732
▁bánh 1454324
▁mưa 1453687
▁ngăn 1451489
▁Vũ 1450376
▁lá 1450151
▁mã 1449490
▁authors 1445494
▁cũ 1444410
▁voice 1444376
▁sometimes 1444250
▁mỹ 1444136
▁La 1443720
▁II 1442534
▁tô 1442320
▁tỏ 1439863
▁đích 1437764
▁tỉ 1437668
▁loves 1437048
▁share 1436909
▁entire 1436115
▁lương 1435975
▁cắt 1435180
▁County 1435146
▁current 1433873
▁involved 1429587
▁vay 1426526
▁themselves 1426210
▁Tiên 1425071
▁thinking 1424988
▁various 1424070
▁cha 1423898
▁Ở 1422691
▁tái 1422461
▁games 1420389
I 1419929
▁French 1417295
▁outside 1416545
▁chứa 1415663
▁according 1415330
▁brother 1415260
▁From 1414718
R 1412109
▁phổ 1412056
▁tried 1411636
▁cháy 1411624
▁Sh 1410272
▁community 1409966
▁Còn 1409263
▁saying 1409109
▁wish 1408940
▁làng 1408744
K 1408353
▁social 1408029
▁special 1407533
▁tầm 1407136
N 1405753
▁đổ 1402071
▁chút 1401306
▁đón 1399789
L 1397553
▁club 1396881
▁Dự 1394894
▁simply 1393045
▁biện 1392039
▁created 1391146
▁29 1389801
▁fall 1389705
▁record 1389027
▁described 1388916
▁mấy 1388320
H 1387951
▁ways 1385824
▁coi 1385690
▁miễn 1384845
▁nhiễm 1384840
▁suốt 1384326
▁pay 1383931
▁cut 1380981
▁star 1380122
▁quality 1379215
▁James 1378315
▁simple 1377592
▁linh 1377221
▁previous 1375801
▁Tài 1374874
▁gift 1373906
HCM 1373271
▁billion 1372805
▁whose 1372160
▁Âu 1371683
▁Kinh 1369943
▁door 1369657
▁population 1369074
▁fire 1368614
▁nàng 1368428
▁England 1368399
▁heard 1367661
▁ương 1365022
▁Ủy 1363033
▁Now 1362465
▁Phát 1361296
ism 1360191
▁sent 1359662
▁collection 1358941
▁Although 1355508
▁gỗ 1354650
▁hài 1353761
ation 1351227
▁sóc 1348847
▁Can 1347988
▁lỗi 1344441
▁maybe 1343516
▁dark 1343448
9 1343352
▁Đối 1343267
▁financial 1342915
▁Gia 1342609
▁sợ 1342356
▁gắn 1341619
▁Thiên 1341337
▁Hai 1341068
▁đen 1340954
▁developed 1340094
▁San 1339224
▁Linh 1338542
▁cam 1335156
▁served 1334613
▁addition 1332639
▁70 1332403
▁post 1330798
▁low 1330231
▁vững 1329284
▁phúc 1328805
▁similar 1327278
▁h 1326700
▁California 1326482
il 1326132
▁comment 1325705
▁helped 1324803
▁election 1324534
▁international 1322887
▁kịp 1320234
▁tạm 1319848
▁ma 1319081
▁thao 1318826
▁giving 1317928
▁type 1317110
▁moment 1316952
▁King 1315627
▁mean 1314655
▁alone 1312711
▁Chi 1311253
▁fiction 1310964
▁Nhân 1310792
▁modern 1309290
▁February 1307965
▁hot 1307725
▁earlier 1307580
um 1307404
▁means 1306923
able 1305967
▁hương 1305388
▁kém 1304961
▁completely 1304683
▁nhật 1304445
▁bật 1303715
▁Park 1303033
▁dần 1302119
▁nearly 1300382
▁Đó 1300362
▁thác 1299629
▁band 1297639
▁Ms 1297586
▁met 1297431
▁Cô 1296750
▁hold 1295993
▁historical 1295813
▁likely 1294832
▁continue 1294243
▁80 1292987
▁church 1290605
▁boy 1290590
▁common 1289019
▁gốc 1289009
▁Tổ 1287827
▁opened 1286796
▁court 1286383
▁recent 1286287
▁cục 1284038
▁thầy 1283217
▁Nẵng 1282992
▁issue 1282679
▁trú 1281545
▁Về 1279307
▁liền 1279028
▁cannot 1278299
▁Ảnh 1277500
▁longer 1277189
▁fell 1276954
▁How 1276000
▁chữ 1275175
▁sắp 1273130
▁spent 1273084
▁Times 1271655
▁Cũng 1271404
ine 1271257
▁thiệu 1269993
▁nhấn 1269472
▁ended 1268228
▁ước 1267635
▁land 1267450
▁Michael 1267407
▁bring 1267069
▁tắc 1266990
U 1265828
▁weeks 1265494
▁x 1264847
▁thịt 1264046
▁HLV 1264035
▁question 1263907
▁hôn 1263536
F 1263319
▁decided 1262809
▁f 1262716
▁khủng 1262551
▁thừa 1262537
▁Mai 1262534
ak 1261936
▁Christian 1261713
▁deep 1258691
▁DN 1258281
▁Q 1257897
▁2005 1256298
id 1256197
▁xung 1255258
▁Ba 1255053
▁playing 1254893
▁announced 1252969
ley 1252422
▁thậm 1252087
▁ngắn 1251816
▁tuy 1251522
▁thai 1250199
▁kim 1250079
▁cận 1249252
▁lái 1248292
▁dead 1247283
ies 1245843
▁lai 1244616
▁rừng 1242991
▁Even 1242270
▁tóc 1240715
▁phận 1239817
▁Tuấn 1238890
▁Iran 1238738
▁honest 1237550
▁lạ 1237503
▁ideas 1236189
▁sữa 1235110
▁step 1234189
▁ones 1233960
▁station 1233646
▁Đặc 1231955
▁hải 1231552
▁quê 1230931
▁term 1230921
▁đèn 1230540
▁giành 1230175
▁kẻ 1230028
▁stay 1229054
▁cười 1228721
ur 1228176
▁Cục 1228062
▁Trang 1227747
▁normal 1226058
▁happen 1224909
▁talk 1224896
j 1224826
▁Sự 1223324
▁binh 1223182
▁provide 1223020
▁Nghị 1222605
▁khúc 1221814
▁running 1221091
▁Sunday 1219630
ad 1219259
▁lược 1219108
▁meet 1218728
▁field 1217634
▁tờ 1216254
▁Love 1215148
▁rút 1214943
▁companies 1214592
▁feeling 1214355
▁khán 1213096
▁thụ 1212488
▁Con 1209528
▁minutes 1209371
▁figure 1209302
▁uy 1208841
▁text 1208553
▁quảng 1208026
▁31 1206077
▁nghèo 1204449
▁thoát 1202410
▁economic 1202221
▁European 1202072
▁vé 1201678
▁chance 1201356
▁Lý 1200816
▁hạnh 1200804
▁tồn 1200735
▁result 1200731
▁campaign 1200129
▁dáng 1199174
▁space 1198463
▁total 1197798
▁Reuters 1196012
▁website 1195458
▁90 1193845
▁ngại 1192978
▁German 1190228
▁White 1190167
▁cậu 1190089
▁Book 1188452
V 1186148
▁Iraq 1185717
▁science 1183964
▁finish 1183214
▁chặt 1180953
▁located 1180708
▁road 1178728
▁thiệt 1178624
▁journey 1176489
▁nắm 1175919
ol 1175808
▁xấu 1175354
▁complete 1175172
E 1174895
▁certain 1173352
▁industry 1173130
▁Good 1172180
▁Lâm 1172106
▁niềm 1171732
O 1170988
▁lượt 1170192
▁First 1169487
▁middle 1168434
▁upon 1167950
▁usually 1167615
▁tim 1167572
▁college 1166790
▁turns 1166225
▁Very 1165509
▁núi 1163810
▁đột 1163396
ve 1162294
▁Trên 1161772
▁chụp 1161706
▁material 1161321
▁web 1160536
▁Đoàn 1159800
▁ràng 1159395
▁above 1159383
▁tươi 1159244
▁event 1157860
▁dữ 1154835
▁leading 1154734
▁xong 1154203
▁Street 1154164
▁hầu 1154116
▁married 1153049
▁Giáo 1152793
▁loạt 1151617
▁liệt 1150502
▁areas 1150438
▁average 1147626
▁position 1147618
▁knows 1147287
▁cost 1145506
▁continued 1144399
▁race 1143466
▁Phong 1143130
▁Just 1142919
▁Cơ 1142872
▁chiếu 1140833
▁security 1140789
▁Yên 1139981
▁quick 1139577
▁ngũ 1139403
▁terms 1139369
▁kia 1138719
▁countries 1138271
ra 1137696
▁George 1137497
▁size 1132618
ll 1132358
▁sister 1132232
▁key 1132134
▁Also 1132026
▁yên 1130702
▁media 1130371
▁higher 1129680
▁moving 1129651
▁Paul 1129345
▁seven 1129006
▁Thời 1128640
▁services 1128570
▁lệnh 1128131
▁toward 1127911
▁Its 1126634
▁Ngân 1126615
▁easily 1125823
▁reviews 1125795
▁changed 1124808
▁UK 1124647
▁răng 1124300
▁đương 1123643
▁followed 1123239
▁km 1122808
▁red 1122801
▁ground 1122768
▁understanding 1122174
▁decision 1122014
▁la 1121818
▁returned 1121122
▁plans 1120839
▁tôn 1120787
▁private 1120764
▁During 1120635
▁tấm 1120335
▁khuyến 1120157
▁pictures 1119401
▁Được 1119026
▁stand 1118682
▁thỏa 1118157
▁Monday 1117862
▁Friday 1117220
▁East 1116673
▁television 1115992
▁bền 1114684
▁guy 1114671
▁Tuesday 1112870
▁International 1112388
▁recipes 1111855
▁họa 1111135
▁2000 1111095
▁bào 1110941
▁Tập 1110151
▁Em 1109286
im 1109061
▁sóng 1108809
▁funny 1107541
▁dịp 1106978
▁novels 1105230
om 1105027
▁chợ 1105011
▁trụ 1104924
▁learning 1104634
▁Bệnh 1103811
▁Tết 1102063
▁đứa 1100636
▁35 1099881
▁khổ 1099627
▁truy 1098350
▁exactly 1098165
▁bạc 1098034
▁lắng 1096569
▁Australia 1096241
▁Hãy 1094240
▁meeting 1093707
ant 1092771
▁Phật 1092240
▁ngữ 1091609
▁bếp 1091504
w 1091054
▁etc 1090719
▁ready 1089906
▁fight 1089301
▁yourself 1089195
▁2004 1089019
▁loss 1088521
▁trúc 1087782
▁bí 1086530
ai 1086470
▁provided 1085562
ot 1085495
▁release 1085421
▁Hưng 1084751
▁Thương 1084722
▁attack 1084518
▁lắm 1084465
▁Triều 1082296
▁village 1082271
▁appeared 1081127
▁particularly 1080948
▁kê 1079636
▁trăm 1078035
▁nhắc 1077978
▁phi 1077705
▁considered 1077438
▁force 1077433
▁lắp 1077220
▁director 1077126
▁provides 1076941
▁o 1076568
▁official 1075883
▁learned 1075394
▁thơ 1075188
▁round 1075109
▁Hiệp 1074994
▁gió 1074210
▁rơi 1073714
▁Đình 1071687
▁section 1071464
▁popular 1071419
▁Th 1071154
▁France 1070907
▁nét 1070376
▁create 1069131
▁mời 1067977
▁rate 1066241
▁Báo 1066149
▁leader 1063558
▁Tiến 1062969
▁summer 1062660
▁quà 1062459
▁300 1062173
▁blood 1061384
▁kiệm 1061023
▁Hùng 1060585
ated 1060424
▁species 1060116
▁knowledge 1060049
▁absolutely 1059784
▁lived 1059530
▁disappointed 1059201
▁serious 1058939
em 1058570
▁sàn 1057988
ah 1057933
▁project 1057870
▁player 1057277
▁forces 1057034
▁truth 1056938
▁states 1056775
▁đỡ 1055340
▁Is 1054098
▁Hương 1054001
▁Wednesday 1053673
▁Canada 1052631
▁Then 1052231
▁training 1051765
▁fine 1050484
▁Cao 1050291
▁includes 1049987
▁shot 1048987
▁expect 1048894
▁detail 1048362
▁hắn 1046933
▁immediately 1046765
▁dừng 1046616
▁picture 1046445
▁latest 1045884
▁cuốn 1044168
▁Họ 1043447
▁families 1042497
▁mộ 1041737
▁break 1041692
▁match 1041379
▁cà 1040949
▁Chúa 1040184
▁Cho 1039596
ac 1039470
.000 1039441
▁region 1039387
▁sàng 1038884
▁energy 1037889
▁45 1036455
▁south 1035912
▁huge 1035783
▁Thursday 1035743
▁north 1035714
▁Syria 1035712
▁Quân 1035675
▁pha 1035120
▁Israel 1034576
▁Europe 1034272
▁gone 1033531
▁unique 1033473
▁sound 1033373
▁dư 1032584
▁lãi 1032518
▁ch 1032173
▁places 1031041
▁education 1030502
▁mẽ 1030414
▁Group 1029913
▁hear 1029257
▁agree 1028657
▁culture 1028623
▁rights 1028608
▁India 1027656
▁certainly 1027235
▁Giá 1026530
▁News 1025452
▁gắng 1025102
▁ngon 1024229
▁chapters 1024190
▁despite 1022950
▁value 1022093
▁Most 1021889
▁eight 1021230
▁nguyện 1019983
▁remember 1019946
▁groups 1019087
▁perhaps 1019044
▁Thứ 1017943
▁older 1015994
▁gói 1015533
▁thuyết 1014811
▁looks 1014184
▁largest 1013181
▁hy 1012862
ay 1012617
▁Thu 1012144
ir 1011899
▁Ngay 1011454
▁kèm 1011358
▁tạp 1010809
▁Dù 1010567
▁recently 1010466
▁situation 1009770
▁VN 1009737
▁Don 1009327
▁changes 1009292
▁test 1008366
▁results 1008134
▁# 1006648
▁Nha 1005921
▁Los 1005527
▁Robert 1005359
▁Christmas 1005228
▁production 1004912
and 1004909
▁nổ 1004548
▁focus 1003814
▁morning 1001793
▁pick 1001499
▁Many 1000597
▁Du 998328
▁economy 997210
▁players 997201
▁Chinese 996692
▁đám 996136
▁glad 996044
▁đoán 995804
est 995525
▁tells 995458
▁ghế 995356
▁helpful 995283
▁General 995277
▁ten 994417
▁dựa 994133
ion 992874
ings 992428
▁success 992428
▁guide 992398
▁oil 991489
▁scenes 990902
▁add 990879
▁beyond 990677
▁tale 990616
▁nỗ 989754
▁Thực 989150
▁AP 988996
▁Well 988912
▁starting 988587
▁thải 987806
▁viêm 987031
▁ủng 986899
▁evidence 986313
▁chief 984680
ov 984225
▁offer 984055
▁Tư 983502
▁ấm 983275
▁Khu 982441
▁đòi 982228
▁Khánh 982160
▁mát 981869
▁đẳng 981775
▁professional 981216
▁sạn 980653
▁Chương 980381
▁female 980349
▁filled 980248
▁rượu 979432
▁xu 979149
▁sales 978947
ang 978016
▁nêu 977470
▁design 976728
un 976224
▁student 976137
▁Viện 975181
▁hoàng 975102
▁Will 975079
▁dương 974845
▁practice 974675
▁growing 972954
▁particular 972893
▁reached 970249
▁Đ 970063
▁khô 969750
▁football 969543
▁Another 969046
▁technology 968820
ab 966742
▁cứng 964036
▁Hóa 963381
▁Dũng 963308
▁mừng 962749
▁mạch 961884
▁Telegraph 961595
▁slow 961589
▁forced 961160
▁túi 961104
▁chàng 960355
▁poor 959943
▁mãi 959689
▁huyết 959467
▁đảng 959466
▁overall 958683
▁cưới 958348
▁bại 957119
▁lẫn 956868
▁towards 956181
▁murder 955227
W 954978
▁sỹ 954322
▁mail 953318
▁approach 953041
▁Tr 953004
▁mơ 952944
▁scene 952365
ag 951975
▁ngược 951564
▁giàu 951214
▁board 950068
▁purchased 949388
▁mê 949309
▁society 948372
▁complex 948276
▁Department 947539
▁quarter 947230
▁writes 947111
▁thẻ 946500
▁2003 945982
▁travel 945928
▁trương 945386
io 944950
▁tùy 944945
▁làn 944904
▁khắp 943674
▁yes 943242
▁dõi 942661
▁content 942416
▁leaders 942390
▁Cùng 941936
▁Bush 941467
▁Cách 941242
▁hồng 940797
▁track 940580
▁waiting 940473
▁College 940373
▁mostly 939817
▁visit 939534
▁Máy 939232
▁hề 938858
▁chậm 938727
▁feet 937826
▁Le 937458
▁happens 936413
▁ability 936408
▁khiển 936162
▁condition 935435
▁Bí 935166
▁Kết 934084
▁keeps 933608
▁girls 933154
X 932825
▁rau 932625
▁nắng 932343
▁save 931481
▁Air 931232
▁leaving 930768
▁đáo 930064
▁ha 930063
▁piece 929641
▁allowed 929521
▁ngôn 928047
▁Đầu 927847
▁Clinton 926751
▁federal 926095
▁seat 925767
▁bè 925394
▁Of 925302
▁cause 925256
▁produced 925098
▁ask 924928
▁battle 924467
▁giảng 922703
▁entertaining 922389
▁Nghệ 921787
▁hair 921699
▁sold 921521
▁tr 921380
▁medical 921058
▁fans 920930
les 920556
▁amount 920337
▁capital 920253
ent 920238
▁straight 920224
▁Black 920168
▁ly 920142
▁băng 920080
▁Cảnh 919862
▁camera 919675
▁powerful 918227
▁paper 918207
▁baby 918205
▁Cần 916768
▁mũi 916626
▁offers 916362
▁River 916272
▁required 916003
▁Quý 915471
▁De 915454
▁message 915291
▁Sài 915201
▁sứ 915112
▁lành 914997
▁Mặc 914928
▁eventually 914862
▁địch 914739
▁sắt 914717
▁trưng 914701
▁Vậy 914148
▁Internet 913680
▁gà 913583
▁đợi 913553
▁nature 913404
ness 912829
▁Thủy 912651
ard 911998
▁Brown 911950
▁Red 911803
▁account 911540
Y 911215
▁trừ 910956
▁Trưởng 910929
▁Phúc 910822
▁buồn 910403
▁tax 910190
▁Since 910154
▁related 910020
▁humor 909451
▁table 908978
▁lan 907574
ens 907451
▁missing 906558
ish 906368
▁stage 906317
▁Vĩnh 905052
▁pain 904399
▁date 904332
▁hè 904114
▁cặp 902954
▁lines 902779
▁sweet 902449
▁nation 902018
▁staff 901914
▁pre 901825
▁Độ 900514
▁Angeles 900330
▁color 899642
▁schools 898963
▁range 898961
▁opinion 898422
▁phone 897861
▁miệng 897443
▁opening 897177
▁ngang 897140
▁below 896626
ong 896024
▁edition 895828
▁ordered 895540
▁32 895508
▁dụ 895141
▁William 894213
▁Church 893675
ons 892869
▁Hàng 892796
▁lối 892301
▁tù 891896
▁iPhone 891847
▁setting 891304
▁clearly 891146
▁trip 890507
▁Ngoại 889985
▁lots 889881
▁gấp 889076
▁center 888997
ne 888898
▁Paris 888284
▁model 887995
▁vời 887945
▁established 887935
▁effort 887652
▁trùng 887017
▁nghìn 886892
▁bậc 886359
▁High 886271
▁closed 885568
▁vết 885271
▁bờ 885175
▁build 885169
▁Court 885047
▁telling 885013
▁joined 884880
▁marriage 884535
ans 884079
▁chở 884061
ier 883720
▁lack 883545
▁Your 883010
▁rời 883005
▁đua 882842
▁góc 882784
▁Thomas 881795
▁gương 881619
▁lưới 880720
▁eye 880635
▁bang 880378
▁Americans 879443
▁nửa 879410
▁bed 879336
▁tu 877436
▁tường 876494
▁kêu 876435
▁tour 876296
▁1990 876006
▁bãi 875385
▁stuff 874109
▁nộp 873311
▁finds 872765
▁risk 872174
▁successful 871964
▁Phan 870581
▁chục 870563
▁central 870121
▁j 869687
▁district 869558
▁talking 869368
ell 868961
▁goal 868694
▁ơn 868142
▁seeing 868068
▁twists 867771
▁fourth 867665
▁Army 867439
▁Two 867347
▁Mỗi 866849
▁policy 865909
▁thua 865234
▁useful 865146
▁cent 864929
▁passed 864798
▁Bởi 864325
▁currently 863913
▁enjoyable 863577
▁dày 863174
▁District 862999
▁tệ 862660
▁whom 862119
▁begin 862073
▁potential 861280
▁raised 861239
▁Germany 860783
▁THE 860097
▁ahead 859434
▁Điện 859339
▁kháng 859338
ri 859062
▁xứ 858634
▁Me 858570
▁global 858252
▁phán 857982
▁khuôn 857732
ina 857566
▁Tất 856894
▁comments 856608
▁2001 856599
▁arrived 856285
▁Gòn 855625
▁allow 855015
▁faith 854718
▁growth 854376
▁Google 854276
▁rửa 853995
ists 853880
▁cấm 853220
▁trấn 853025
▁pass 852998
▁ran 852925
▁sort 852827
▁lục 852296
▁Vân 852278
▁natural 851884
▁w 851868
▁Web 851433
▁box 851390
▁căng 850903
▁un 849718
▁legal 849672
▁bank 849421
▁cases 849279
▁attacks 848885
au 848840
▁thận 848795
▁bar 848723
ity 848018
▁hẳn 847876
▁Khoa 847498
▁Saturday 847367
▁Mark 847260
▁perspective 847184
▁Japan 846900
ling 846001
▁address 845457
nd 844971
▁vong 844564
ana 844084
▁performance 843546
▁đấy 842672
▁extremely 841809
▁súng 841429
▁Mar 841038
▁showed 840669
▁check 840206
▁uses 839904
▁Be 839062
▁features 838779
▁ngừng 838760
▁starts 837781
▁đức 837651
▁Jesus 837570
▁More 837415
▁ĐH 837203
▁Định 836689
▁Afghanistan 836308
▁pulled 836176
▁tri 836171
▁cơn 835639
▁reality 835116
▁depth 834942
▁caught 834893
▁wanting 834524
▁search 834512
▁Bài 834487
▁Council 834278
▁individual 833992
▁reports 833514
▁bắn 833263
▁positive 832736
▁ung 832675
▁thoải 832122
op 831741
▁Đào 830936
▁Texas 830640
▁fear 830157
▁khung 829535
▁2019 829290
▁2002 829242
▁Bible 828766
▁vote 828608
▁El 828331
▁paid 828157
▁Mexico 827602
▁Party 827161
▁Trump 826821
▁answer 826629
▁Lee 825296
▁wide 824670
▁Center 824552
▁Học 824470
▁đừng 824163
▁ngàn 822715
▁quên 822619
▁foreign 822253
▁Am 821685
▁increase 821247
▁Vinh 821162
▁nỗi 820467
▁adventure 820222
▁lower 820039
▁choice 819905
ha 819339
▁thước 818494
▁bão 817833
▁west 817400
▁becomes 816692
▁statement 816115
▁cr 815050
▁please 814989
▁finding 814823
▁u 813914
▁purchase 813589
▁Apple 813445
30 813311
▁Smith 812777
▁nhiêu 812367
▁Biên 811589
▁heavy 811395
▁designed 811147
▁advice 810917
▁watch 810826
▁hiệp 810751
▁dứt 810479
▁hào 810211
▁36 809748
▁vườn 809574
▁ống 809130
▁Cộng 807813
▁arms 807209
▁According 807173
▁cm 806673
▁Union 805637
▁library 804526
▁ship 804251
▁reach 803665
▁đợt 803442
▁exchange 803219
▁im 803127
▁daily 802871
ap 802852
▁Nó 802535
▁reference 802442
ized 802424
ates 800133
▁chặn 799922
▁mid 799875
▁linked 799452
▁basic 799387
▁sổ 799219
▁Facebook 799124
▁administration 798240
▁winning 794846
▁Dân 794468
▁feels 794033
▁gas 793816
▁phó 792709
▁Ấn 792578
▁hospital 792478
▁bồi 792225
▁totally 792114
▁kho 791864
▁rich 791045
▁haven 790639
00 790247
▁credit 789778
▁Tâm 789439
▁IS 789266
▁meant 788639
▁mùi 788331
▁rock 788032
▁act 787257
▁sim 787000
▁sad 786426
oc 786390
▁chào 786376
▁bây 786298
▁store 785810
▁Vụ 785498
▁Jack 785275
▁Thường 785179
▁Lúc 784784
▁failed 784448
▁Once 784390
▁religious 783841
ors 783836
▁edge 783471
▁prices 783163
▁Britain 783160
▁Quyết 782616
▁trào 782310
▁Russian 782108
▁SN 781639
ry 781463
▁presented 781394
▁signed 781062
▁surprised 781057
▁thầu 780880
▁Cụ 780799
▁hour 780126
▁tả 780021
▁duyệt 779723
▁east 779359
▁Amazon 779174
▁background 778422
▁ép 777385
ig 777252
▁Là 777203
▁Like 777201
▁dog 777143
▁chảy 776276
▁Indian 775978
▁floor 775869
▁drug 775585
▁bữa 775499
▁Vương 775144
▁.. 774068
▁Peter 773504
led 773348
▁names 772438
▁leaves 772393
▁ends 772017
▁nhuận 770737
▁Mary 770673
▁lọc 770457
▁ẩm 770396
ations 769715
land 769562
./ 769078
▁detailed 768680
▁Other 768267
▁trade 768023
▁Đường 767993
▁pieces 767383
▁source 767118
ler 766351
▁hero 766313
▁1980 766292
▁becoming 765961
ik 764511
▁suspense 764263
▁attempt 764025
▁crime 763874
▁đài 763139
▁hộp 762879
▁Sa 762403
▁Star 762164
▁Each 761475
▁introduced 761385
▁bụng 760593
ul 760349
▁products 759918
▁Service 759493
▁Ar 759436
▁minute 758960
▁Bank 758399
▁già 758040
▁significant 757907
▁Western 756751
▁tắm 756662
▁Minister 755986
▁fully 755801
▁trông 755293
▁violence 755236
▁access 755185
▁workers 754857
▁guess 754746
▁Japanese 753415
▁feelings 753347
▁Giải 753336
▁gọn 753000
▁rối 752149
▁Phi 752145
▁anti 751996
▁adult 751706
▁remains 751666
▁cast 751135
ro 751005
▁bill 750702
▁picked 750426
▁except 750198
▁giết 749582
▁fighting 749533
▁mouth 749503
▁Singapore 749435
▁fantasy 749413
▁Số 749404
▁teams 748739
▁đãi 748679
▁Day 748612
▁Congress 748291
▁offered 748126
▁secret 748111
▁fit 747936
▁đàm 747789
▁Quận 747208
▁emotional 746637
▁trữ 746447
▁huấn 746434
▁biggest 745989
▁Mặt 745959
▁chấm 745471
▁Africa 745353
▁Real 745342
▁cơm 745080
▁hảo 744593
▁xinh 744367
▁kịch 744259
▁Thiết 744022
ating 743994
▁thoughts 743830
▁effect 743719
▁Thuận 743373
▁male 743324
▁sign 743321
▁Big 742944
▁stopped 742271
▁troops 741926
▁senior 741910
▁recommended 741618
▁Huy 741456
age 741028
▁túy 740653
▁runs 740497
▁nấu 739851
▁rules 739818
▁African 739251
▁lưng 738919
▁purpose 738578
▁dậy 738472
▁Quy 737082
▁bột 736674
▁dao 736426
▁hẹn 735629
▁xăng 735415
▁traditional 735107
kg 734940
▁covered 734836
▁TPHCM 734473
▁grew 734298
▁ref 733637
▁base 733488
▁Richard 733408
▁thiểu 733066
▁thờ 732629
ut 732166
▁th 732120
▁caused 732000
▁400 731622
▁Song 731438
▁tung 731262
▁debut 731077
▁ngọt 730819
▁Republican 729543
▁specific 729433
▁drawn 729224
▁thang 729156
▁thập 728589
▁Pakistan 728392
▁lỗ 728198
▁trust 728010
▁Đài 727780
▁vỡ 727713
▁Their 727408
▁Qua 726837
▁Royal 726441
▁meaning 726025
▁begins 725465
▁st 724805
▁điển 724443
▁drama 724046
▁turning 724022
▁hủy 723850
▁talks 723659
▁examples 723444
▁familiar 723023
▁experiences 722883
▁33 722760
▁Tình 722289
▁placed 722193
▁remained 721789
▁chạm 721599
▁speak 721453
▁efforts 720950
▁levels 720928
▁thuyền 720866
▁teacher 720591
▁walk 720319
ter 720147
ner 720110
▁đỉnh 719970
▁Company 719414
▁continues 719221
▁Đội 719109
▁thách 718978
▁Thượng 718952
▁touch 718479
▁degree 718401
▁Russia 718252
▁spend 718201
▁mắn 717964
▁Sam 717676
▁tủ 717470
▁moments 717375
▁Tom 717290
▁Association 717167
▁Democratic 717076
▁watching 716958
▁Both 716702
▁gold 716358
▁miles 716109
▁75 716028
▁crisis 715951
▁volume 715801
▁nine 715468
▁kênh 715115
▁drive 714703
▁xương 714612
▁insight 714126
▁numbers 714123
▁Bill 713680
▁ngã 713326
▁compared 713199
▁kill 713144
▁blue 712703
▁150 711519
▁65 711015
▁sơn 710968
▁construction 710525
▁mine 709608
▁brings 709469
▁loạn 709380
▁fascinating 709226
▁appear 709049
one 708062
▁Chị 708039
▁Lord 707953
▁Sản 707890
▁movement 707720
▁bối 707576
▁Florida 707066
▁thượng 706994
▁concept 706834
▁appears 706780
▁Hữu 706696
▁elected 706534
▁lũ 706532
▁executive 706022
▁Hall 705407
▁surprise 704565
▁Phước 704469
▁realize 704390
▁Green 704290
▁radio 704130
▁Vào 703912
ach 703869
▁believed 703229
▁Charles 702245
▁putting 702217
▁che 701644
▁Co 701381
ke 700860
▁khích 700552
▁phức 700120
▁stock 700077
▁wonder 699651
▁khấu 699034
▁Quản 698588
▁quỹ 698256
▁nor 697506
ou 697401
▁ẩn 696806
▁tiềm 696385
▁coach 696321
se 696259
▁phấn 696217
▁People 695912
▁actual 695888
▁xưa 695831
▁Võ 695056
23 694999
▁broken 694960
▁buôn 694747
▁relationships 694138
▁hoping 694050
▁mai 693934
▁Trương 693504
▁victory 693440
▁card 693168
▁Chicago 693044
▁computer 692389
▁fantastic 690893
▁necessary 690421
▁helps 690151
▁Please 690037
▁remain 689959
▁consider 689742
▁Inc 689575
▁su 689572
▁treatment 689492
▁Bay 689005
▁super 688885
▁wouldn 688585
▁Tiền 688413
▁HCM 688162
▁majority 688030
▁receive 688020
▁Lưu 687930
▁sitting 686663
▁accept 686612
▁01 686390
▁Thắng 686378
▁dị 686231
▁Duy 685895
▁Sáng 685771
▁tổn 685756
▁regular 685651
son 685294
▁onto 685074
▁impact 684804
▁bò 684292
▁street 683169
▁nhựa 683094
▁awesome 683090
▁spending 682664
▁ĐT 682639
▁phú 682637
▁claims 682585
▁thù 682524
▁Senate 682476
▁thép 681880
▁management 681775
▁wall 681554
▁kín 681531
▁stood 681351
▁covers 681083
▁đuổi 680643
▁mực 680248
▁description 679639
▁kì 679473
▁reasons 678833
▁protect 678772
▁calls 678511
av 678458
20 678150
▁trouble 678010
▁Vietnam 677351
▁additional 677282
▁weight 677059
▁contains 676888
▁1970 676813
▁charge 676676
▁grow 676376
▁Martin 676309
▁Cuộc 676301
▁Ph 676181
▁lâm 675929
od 675399
▁agency 675197
▁Police 674833
▁gỡ 674416
▁famous 674407
▁soldiers 673720
▁Or 672879
▁Giao 672848
▁sorry 672429
ng 672109
▁artist 671537
▁discovered 671183
▁buying 670950
▁Chiến 670697
▁dinh 670219
▁oh 670078
▁property 669408
▁34 669299
▁island 669219
▁tá 669209
▁trứng 669069
▁holding 668936
▁plays 668520
▁hư 668035
▁completed 667782
▁officer 667665
▁tán 667586
▁phẫu 667410
▁guys 667327
▁mentioned 667073
▁Lào 666703
▁previously 666543
đ 666490
▁keeping 666405
all 666330
▁green 666290
▁exciting 666121
▁khoán 666061
▁Cầu 665987
▁EU 665922
▁rose 665920
▁Why 665836
▁Tin 665442
▁politics 664892
▁cute 664838
▁tan 664328
▁diệt 664241
▁TNHH 664220
▁arm 664024
▁evil 663772
▁generally 663477
▁hurt 663296
▁Best 663046
▁independent 663038
▁lẻ 662871
▁boys 662737
▁programs 662729
▁hứng 662489
▁note 662286
▁somewhat 662108
▁prison 661919
▁songs 661535
▁writers 661188
▁physical 661161
▁bốn 660941
▁army 660778
ip 660677
▁sexual 660553
▁pin 660417
▁organization 660172
▁response 660072
▁peace 660033
▁Life 659864
▁recorded 659813
▁sh 659813
▁standard 659662
▁trần 659388
▁hook 659247
▁younger 659184
▁firm 658863
▁Bác 658723
▁founded 658667
▁studies 658662
▁laugh 658558
▁Italy 658508
▁Nông 658318
▁photos 658259
▁Henry 657685
▁ex 657681
▁interview 657486
▁Christ 657326
▁Trọng 657101
▁income 657007
▁primary 656966
▁formed 656625
▁gạo 656377
▁safe 655756
▁Lương 655714
▁1999 655466
▁okay 655287
▁owned 655270
▁09 654950
▁CNN 654876
▁rác 654335
▁actions 654115
▁ngập 653976
▁mom 653911
▁competition 653643
▁agreed 653607
▁figures 653359
▁nuclear 653297
▁chấn 653032
▁fair 651704
▁Phần 651512
▁thousands 650522
▁supposed 650426
▁quang 650398
▁Harry 649994
▁Central 649948
▁activities 649897
▁cựu 649717
▁Toàn 649686
▁ 649658
▁worst 649373
ization 649223
▁pressure 649212
▁Press 648438
▁classic 648425
▁giỏi 648135
▁brain 647582
▁larger 647388
▁Hơn 646928
▁đậu 646806
▁lông 646609
▁treo 646221
▁đ 644608
▁path 644587
▁theory 644573
▁opportunity 644552
▁Tam 644270
▁jobs 643642
▁Xây 643302
▁rise 642773
▁multiple 642751
ara 642530
▁cold 642219
▁hell 642184
▁contract 642157
▁Huế 641548
▁trial 641338
▁managed 641061
▁hồn 640937
▁limited 640811
▁doubt 640728
▁emotions 640686
▁manager 640262
▁Di 640157
ide 639663
▁Ma 638987
▁thở 638905
▁extra 638060
▁originally 637951
▁Lộc 637880
▁explain 637854
▁vỏ 637328
▁smile 637321
▁tụ 637275
▁cướp 637274
▁Xe 636654
▁38 636628
▁cars 635957
▁strength 635738
▁network 635370
▁hàm 634900
▁Hình 634640
▁authorities 634537
▁Tháng 634444
▁Overall 634251
▁conditions 634214
▁cancer 634175
▁Sinh 634050
▁dám 633867
▁cross 633785
▁đập 633429
▁shown 633157
▁facts 632718
▁tràn 632469
▁Ben 631939
▁hỏng 631921
▁mission 631774
▁Kh 631676
TT 631593
▁37 630825
▁mệnh 630566
▁Ngô 630268
▁investigation 630230
▁operations 629954
▁systems 629321
▁ví 629245
▁Jackson 629231
▁Grand 629149
▁Ireland 628848
ment 628722
▁magic 628618
▁dropped 628076
▁dọa 627689
▁costs 627292
ys 626970
▁lúa 626802
▁Super 626606
ane 626517
▁Road 626363
▁length 626087
▁hùng 625901
▁broke 625467
▁hate 625448
▁era 625310
▁via 625260
▁tông 625068
▁scored 624902
▁storyline 624705
▁sat 624373
▁slowly 624133
▁die 623854
▁kiên 623234
▁bề 623072
▁whatever 622187
▁THPT 621849
▁increased 621697
▁ro 621677
▁double 621535
▁Italian 621067
▁thơm 620963
▁Jones 620889
ow 620841
▁slightly 620591
▁GD 620453
▁excited 619952
▁speed 619464
▁đo 619140
▁sea 619104
▁Art 618706
als 618447
▁soul 618428
km 618389
▁Đa 617873
na 617357
▁variety 617262
▁khen 617104
▁avoid 616913
▁Australian 616729
▁Sp 616700
▁shop 616474
▁Spanish 616470
▁animals 616346
10 616272
▁Island 616271
▁Tiếp 615970
▁usual 615920
▁trại 615777
▁lô 615749
▁huống 615698
▁elements 614978
▁genre 614732
▁55 614670
▁Club 614063
▁twice 613479
▁train 613318
▁mạc 613232
▁banks 613194
▁thổ 612984
▁xâm 612818
ary 612764
▁48 612657
▁Old 612618
▁gun 612572
▁lose 612346
▁1960 612120
▁foot 611632
▁aren 611567
ec 610210
▁earth 610179
ino 609825
▁tròn 609496
▁tây 609148
▁giọng 609045
ton 608961
▁connection 608846
▁Hill 608523
▁Cường 608443
▁plus 608066
▁direction 607900
▁Hồi 607570
▁knowing 607469
▁beat 607295
ill 607244
▁não 606724
▁cột 606486
▁Ukraine 606459
ite 606371
▁Malaysia 606283
▁homes 606119
ins 605862
▁Hạ 605851
▁sleep 605743
▁Catholic 605404
▁helping 604879
▁league 604856
▁thảm 604742
▁teaching 604655
ial 604154
▁highest 604092
▁Yes 603882
▁showing 603577
▁hoảng 603519
▁ngực 603483
▁planned 603256
▁apart 603041
▁article 602953
▁ride 602539
▁Thank 602461
▁miss 601402
▁z 600610
▁fresh 600213
▁letter 599830
ians 599457
▁Philippines 598783
▁vua 598144
▁conference 598010
▁Games 597963
ma 597920
▁mưu 597914
▁skills 597828
▁internet 597601
▁Our 597399
▁Top 596820
▁engaging 596606
▁Hy 596296
▁cool 596172
▁1998 596142
▁tỏa 595637
▁Bùi 595478
▁analysis 595243
▁shares 595187
▁annual 595088
▁serve 595022
ani 594937
▁standing 594885
▁walked 594593
▁breaking 594465
▁appreciate 594325
▁tốn 594064
▁ng 593711
▁nhàng 593682
▁-- 593193
▁southern 593099
▁Despite 592748
▁cản 592419
▁notes 592309
▁Tỉnh 592071
▁tắt 591649
▁spot 591595
▁topic 591548
▁ball 591471
▁Brazil 591222
▁appointed 591115
▁spokesman 590632
▁alive 590118
▁Bằng 590070
▁trà 589986
▁sell 589705
ise 589429
▁draw 588772
▁Cổ 588500
▁ôm 588211
▁khẩn 588194
▁challenge 588189
▁đe 588182
▁chùa 587929
ee 587873
▁stated 587344
▁Nghĩa 587120
▁dược 586840
▁revealed 586507
▁khóc 586495
▁adults 586016
▁lão 585910
▁killing 585866
▁providing 585805
▁claim 585638
▁Im 585581
▁Làm 585473
▁safety 585116
▁mệt 585060
▁phái 584407
▁develop 584211
▁Olympic 583969
▁Virginia 583864
els 583444
▁directly 583001
▁decades 582542
▁khuẩn 582375
▁sa 582227
▁Joe 582154
▁pull 582081
▁aware 581943
▁listed 581833
ain 581746
▁master 581540
▁trộm 581314
▁projects 580910
▁trạm 580766
ous 580338
▁nhảy 580263
▁experienced 580182
▁planning 579983
▁officers 579738
▁Biển 579332
▁cài 579265
▁Because 579174
▁practical 578946
▁audience 578889
▁mention 578759
▁chúc 578648
▁numerous 578640
▁park 578540
▁Cả 578485
ance 577975
▁difference 577968
▁điệu 577895
▁McCain 577795
▁carried 577684
▁bọn 577330
▁sốt 577107
▁narrative 577040
▁realized 576894
▁losing 576789
▁structure 576715
▁tĩnh 576597
▁bi 576576
▁túc 576072
▁email 576048
▁thự 575932
▁minister 575729
▁twist 575587
▁steps 574368
▁noted 574204
▁hoang 574155
▁hung 573945
▁mụn 573687
▁illustrations 573663
▁Who 573629
▁Sir 573361
▁Nói 573028
▁flight 572893
▁cổng 572572
ata 572481
▁Johnson 572182
▁Here 572129
▁spoke 572093
▁Read 572075
ich 571778
▁2020 571664
▁markets 571596
▁sexy 571263
▁kem 571110
▁trích 570887
▁code 570722
▁sides 570599
▁trúng 570558
▁đạn 570265
▁thoáng 570123
▁greater 570090
▁1997 570028
▁investment 569417
▁sets 569395
▁Institute 569337
▁đốt 569334
▁formula 568958
▁cant 568860
▁44 568747
▁pace 568729
▁introduction 568653
▁press 568323
▁creating 568228
▁Nhất 567852
▁none 567572
▁individuals 567397
▁hiếm 567139
▁respect 567061
az 566796
▁weekend 566785
▁Act 566721
▁missed 566600
less 566419
▁Lễ 566182
▁reads 566112
▁bạo 565971
50 565826
by 565768
▁tân 565430
▁follows 565215
▁thus 565110
▁breath 564969
▁prior 564682
▁Chelsea 564465
▁descriptions 564442
▁Se 564324
▁Kế 563965
▁hâm 563949
▁newspaper 563811
▁CLB 563728
▁smaller 563725
▁separate 563598
▁charges 563481
▁Tiểu 563346
▁thoroughly 562020
▁Division 562019
▁lay 561958
▁Jewish 561848
▁Kindle 561752
▁worse 561548
▁giày 561247
▁Lai 561223
▁Ai 561047
▁send 560785
▁sắm 560689
▁plant 560444
▁plenty 560236
▁disease 560085
▁PV 560004
▁Loan 559819
▁trầm 559734
▁Post 559326
▁trục 559182
▁hoá 558901
▁Click 558833
▁42 558825
▁trật 558778
▁Br 558774
▁mỏi 558544
▁huynh 558409
▁critical 558369
▁skin 558307
▁rule 558294
▁theme 558273
▁spiritual 558028
▁Government 557992
▁cards 557896
▁solid 557704
▁Indonesia 557521
▁sources 557393
▁laws 557282
▁chăn 556987
▁Re 556842
▁thank 556821
▁struggle 556623
▁Roman 556564
▁Earth 556219
▁TS 556144
▁đoạt 555872
▁presidential 555328
▁tough 555080
▁giường 555036
▁eat 554888
▁patients 554711
▁Tàu 554707
▁sports 554683
▁judge 553907
▁commercial 553898
▁bom 553070
▁gan 552668
▁Pro 552540
▁Cl 552383
▁canh 552361
▁Every 552241
▁xóm 551865
▁Ca 551733
▁Hệ 551684
▁tiếc 551433
19 551346
▁western 551157
▁films 551129
▁focused 551090
▁1996 550778
▁image 550776
▁cờ 550651
▁willing 550240
ore 550186
▁print 550117
▁Scott 550052
▁Quan 550015
CP 549882
▁direct 549408
▁Un 549398
▁closer 549312
▁influence 549186
▁sôi 548941
▁nhi 548917
▁vải 548827
▁trốn 548745
▁49 548731
▁ie 548348
▁intended 548209
▁đậm 547959
▁imagine 547896
▁goals 547847
▁crazy 547782
▁Korea 547696
▁Car 547584
▁gay 547546
▁Last 547523
▁answers 547399
ib 546936
▁Mới 546696
▁tháo 546586
▁bạch 546388
▁Series 546320
▁cú 546075
▁romantic 545930
ics 545649
▁Cái 545369
▁prevent 545364
▁Mẹ 545138
▁clean 545123
▁1995 545042
▁aircraft 544525
ka 543954
▁border 543880
▁images 543568
men 543132
▁claimed 543056
mm 542877
▁ga 542710
▁nh 542544
▁vẽ 542440
ER 542429
▁nhắn 542202
ery 542134
▁CD 542014
▁cảng 541732
▁gợi 541502
▁agreement 541357
▁carry 541253
▁tật 541226
▁magazine 541151
▁Wall 540870
▁sit 540676
▁responsible 540411
▁performed 539602
▁dollars 539444
▁lầm 539387
▁episode 539370
▁hứa 539298
▁99 539248
▁nhãn 539122
▁basis 538901
▁Thánh 538885
▁arrested 538837
▁chẽ 538692
▁types 538644
▁funds 538525
▁owner 538423
ive 538230
▁Hậu 538216
▁Democrats 538091
ars 538016
▁active 537926
▁Committee 537735
▁Thơ 537364
▁residents 537246
▁directed 537222
▁river 537141
▁suggest 537131
▁Tử 537091
▁1992 536480
▁boring 536389
▁location 536348
▁unit 536029
▁replaced 536013
▁trọn 535730
▁memory 535705
▁Ford 535276
▁47 535114
▁Dịch 534886
▁BBC 534716
ize 534674
▁dream 534495
▁64 534491
▁cash 534429
▁đai 533867
▁letters 533582
▁Hôm 533228
▁shared 532980
▁conflict 532294
▁Still 532286
▁Alex 531865
▁childhood 531647
▁typical 531513
▁obvious 531337
▁demand 531272
▁falling 530995
▁status 530930
▁Hợp 530619
▁ko 530302
▁taught 530301
▁religion 530170
▁ancient 530146
▁đựng 529996
ale 529678
▁buildings 529137
ica 528956
▁lãng 528930
▁sub 528919
▁mỡ 528913
▁civil 528908
▁đền 528878
▁39 528803
▁Hollywood 528367
▁cultural 528229
▁possibly 528043
▁professor 527418
▁hearing 527325
ville 527126
▁informative 527110
▁improve 526777
▁loud 526380
▁god 526281
▁fellow 526222
▁Young 526184
▁leadership 525848
▁escape 525833
▁lặng 525783
▁Society 525673
▁Tĩnh 525356
ally 525293
▁appearance 524774
▁determined 524644
▁TT 524620
▁explains 524483
▁Thảo 524477
▁Tính 524170
▁sequel 523994
▁screen 523973
▁Khách 523581
▁ngầm 523475
▁giáp 523365
▁literature 523353
▁1994 523278
▁advanced 523068
▁Though 522935
▁Mac 522649
▁compelling 522282
▁Over 522249
▁béo 521956
▁Lao 521631
▁crew 521531
▁Only 521173
▁Canadian 520725
▁effects 520712
▁suggested 520495
▁Bar 520323
▁chu 520295
▁Award 520238
▁explained 519660
▁negative 519506
▁hang 519414
▁format 519399
▁khuyên 519367
▁mãn 519075
▁bó 518818
▁vinh 518652
▁suffered 518490
▁budget 518171
▁join 518163
▁ruột 518058
▁featured 517528
▁pop 517475
▁changing 517324
ep 517273
▁đạp 517144
▁Qu 516962
▁watched 516910
▁seriously 516826
▁Music 516644
ED 516520
ash 516457
▁seeking 516332
ce 516127
▁dp 515681
▁Địa 515533
▁Sun 515102
▁bụi 514301
▁bê 514198
ge 514134
▁Đề 513969
▁dangerous 513821
▁cát 513781
▁Scotland 513450
▁Đỗ 513409
▁lãm 513399
▁candidate 513249
▁600 512765
▁Under 512730
▁brothers 512624
▁spread 512419
▁environment 512394
▁accused 512386
▁removed 512270
▁href 512260
ob 512008
▁relate 512008
▁giây 511961
▁Nữ 511917
▁launched 511639
▁allows 511615
▁likes 511546
▁discussion 511537
▁Samsung 511429
▁móc 511349
▁Barack 511295
▁minor 511262
▁Daily 511254
▁concerned 510881
▁le 510820
ick 510791
▁giấc 510508
▁chó 510505
▁tips 510430
▁suddenly 510429
▁choose 510313
▁ngừa 509910
▁kid 509872
▁cương 509807
▁UPI 509643
▁item 509577
▁views 509551
▁situations 509502
▁entered 509432
▁rare 509396
▁surface 509275
▁Sch 509273
▁department 508635
▁xóa 508620
▁insurance 508375
▁meets 508180
▁txt 508171
▁Mike 507906
ator 507824
▁aspects 507698
▁Thọ 507577
▁Giấy 507487
▁bám 507484
▁UTF 507476
▁lies 507432
▁ph 507216
▁speaking 507208
▁tang 507152
▁marketing 507087
▁Đinh 507028
▁Tòa 506826
Z 506777
▁ngưỡng 506566
▁arp 506473
▁giam 506393
▁aid 506153
▁drop 505950
▁effective 505859
▁rủi 505650
▁43 505590
▁northern 505546
▁speech 505500
▁prepared 505483
▁Home 505402
up 505204
▁Sen 505204
▁rvw 505163
la 505039
▁admit 505036
▁Tim 504839
▁selling 504581
▁chốt 504567
▁sp 504366
▁hiến 503993
▁Frank 503966
▁dialogue 503577
▁ngư 503110
▁Câu 503101
▁otherwise 503068
▁realistic 503068
ue 503026
▁editor 502734
▁damage 502697
▁strange 502664
▁heroine 502578
▁birth 502568
▁dường 502341
▁ad 502206
▁khớp 502153
▁moves 502137
▁rãi 501902
▁tàn 501680
▁believable 501474
▁holds 501466
▁ho 501457
Đ 501425
▁cốt 501198
▁describes 501139
▁leads 500863
▁doctor 500837
▁nhánh 500712
▁scientific 500672
▁serving 500643
ari 500635
▁driving 500625
▁chừng 500561
ub 500538
▁cell 500504
▁drugs 500353
▁mảnh 500192
▁Căn 500191
▁flat 500078
▁paced 499629
▁en 499575
▁sale 499550
▁sport 499132
▁Irish 499009
co 498792
▁Health 498743
ure 498495
▁creative 498366
▁charged 498217
▁duyên 498135
▁rates 498088
▁Chiều 497795
▁block 497761
▁humans 497441
▁benefit 497376
▁Chung 497165
▁giật 497143
▁ngoái 497109
▁van 496930
▁waste 496571
▁chối 496443
▁xế 496324
▁Instead 496129
▁lừa 496126
▁partner 495979
▁Lake 495812
▁Van 495779
▁truyện 495553
▁teach 495319
▁miếng 495212
▁feature 495131
▁Little 495123
▁camp 495061
▁easier 495053
▁soft 494929
▁thanks 494878
▁defense 494749
▁Time 494531
▁ice 494275
▁delivered 494231
▁king 494222
ets 493868
▁wild 493688
▁dâu 493346
▁Bán 492731
▁fl 492667
▁Bước 492628
ph 492499
▁tries 492381
▁nbsp 492335
ks 492294
▁bơi 492236
▁phỏng 492208
▁Kiểm 492200
▁Game 492130
▁behavior 491966
ini 491606
▁host 491596
▁rating 491483
▁loving 491415
qu 490717
▁debt 490708
J 490264
▁hundreds 490177
▁Secretary 490002
ade 489846
▁tears 489799
▁1993 489503
▁Second 489434
▁thả 489417
▁contact 489363
▁nút 489217
▁inspired 489193
▁operation 489168
Q 489015
▁tảng 488985
▁Tấn 488613
▁dad 488554
▁generation 488552
▁thăng 488179
▁1991 487950
▁smart 487844
▁bến 487812
▁impossible 487732
art 487706
▁1950 487531
▁51 487447
▁customers 487093
▁items 487088
▁resources 486736
▁xuân 486564
▁opposition 486499
▁manner 486467
▁window 486445
▁abuse 486256
▁instructions 486253
▁III 485921
▁faced 485896
▁presence 485872
▁xứng 485719
▁artists 485671
aw 485579
▁toy 485488
▁Hành 485239
▁refer 485159
▁decide 485144
▁Williams 485048
▁cities 484891
▁bus 484775
▁decisions 484766
▁52 484740
▁váy 484328
▁Boston 484162
if 484064
▁Hoàn 483979
▁climate 483964
▁Federal 483930
▁Xem 483798
▁hotel 483607
▁se 483497
▁Ngài 483329
▁CP 483161
▁entirely 483119
▁ác 483058
▁university 483027
▁IT 482992
▁lí 482968
▁weapons 482781
▁bottom 482541
▁calling 482466
▁Nước 482423
▁đâm 482152
▁Zealand 482074
▁Media 481774
izing 481480
▁dâm 481361
▁organized 481071
▁Microsoft 480807
▁clip 480776
▁Commission 480654
▁greatest 480540
og 480384
▁animal 480353
▁Steve 480339
▁dealing 480293
▁attended 480278
▁Academy 480241
▁intelligence 480129
▁estate 480061
▁dạ 479880
▁cỏ 479725
▁brief 479662
▁ill 479512
▁bơm 479075
▁tone 478981
▁muối 478939
▁glass 478789
▁Asia 478784
▁captured 478727
▁Chris 478609
▁developing 478552
▁thùng 478539
▁studio 478478
▁sounds 478423
▁houses 478017
▁desire 477906
▁fill 477847
▁blog 477657
▁brand 477479
▁Đất 477297
ful 477284
▁kh 477265
▁deeply 477196
▁produce 476986
▁parties 476915
▁qu 476437
▁Huỳnh 476348
ung 476165
▁gain 476070
▁activity 476058
▁lessons 476054
▁movies 475838
▁41 475834
▁mixed 475709
▁mix 475549
ile 475499
12 475472
▁Sc 475420
ath 475172
▁fly 475094
▁Gr 474875
▁chín 474869
▁46 474834
▁thinks 474586
our 474347
▁records 474264
▁ASEAN 474245
▁largely 474027
▁mobile 473938
▁Mạnh 473790
▁elections 473725
▁sites 473712
▁challenges 473697
▁ưa 473506
▁balance 473503
▁unless 473283
▁remaining 473183
▁hầm 473108
iv 473088
▁Video 472698
▁hopes 472698
▁sánh 472581
▁inch 472368
▁Thụy 472211
▁debate 472060
▁techniques 471908
▁concerns 471814
▁studied 471640
▁250 471375
▁vitamin 471360
iz 471067
▁happening 470834
▁shape 470725
▁Cam 470681
▁Soviet 470674
▁NOT 470610
▁Nai 470393
▁unable 470319
▁raise 470228
▁expecting 470197
▁bắc 470191
▁beautifully 470188
▁topics 470172
▁Queen 469947
▁housing 469872
▁el 469854
▁Quỳnh 469602
▁initially 469597
▁Elizabeth 469121
▁Southern 469039
▁95 469006
▁TH 468986
sh 468822
ions 468821
▁Rock 468821
▁mainly 468600
▁wind 468504
field 468435
▁flow 468144
▁Prime 467915
ron 467659
▁trống 467609
▁award 467528
▁winner 467395
▁businesses 467114
▁Xã 467110
▁Having 466909
▁tôm 466661
▁Pacific 466647
rd 466601
▁Dan 466536
▁Office 466407
▁forget 466342
▁bớt 466278
▁Jim 466228
▁justice 465870
▁grade 465759
ae 465699
▁Hong 465596
▁grand 465407
▁Ad 465229
▁score 465123
▁pro 464782
▁tools 464713
▁fifth 464416
▁Greek 464239
▁Trà 464192
▁Đặng 464073
▁technical 464065
▁Prince 464031
▁photo 463975
▁Miss 463728
▁victims 463710
▁Three 463537
ok 463334
▁Mọi 463148
▁file 462925
▁apparently 462718
▁chua 462354
▁spirit 462246
▁va 462223
▁push 462208
▁mental 461723
▁Louis 461599
▁hỏa 461394
▁PC 461344
▁regarding 461268
▁800 460783
▁Ý 460498
năm 459932
▁cl 459859
▁Windows 459696
▁warm 459409
▁cất 459344
▁fairly 458475
uk 458413
▁Joseph 458294
▁virus 458280
▁ngụ 458199
▁54 458129
▁grown 458111
▁Middle 458003
▁Yet 457946
▁employees 457863
▁Blue 457709
▁bringing 457695
▁twenty 457332
▁Championship 457178
▁asking 457065
▁Diễn 456887
▁Carolina 456576
▁Stephen 456529
▁cẩn 456242
▁pháo 455931
▁Chánh 455878
▁Phụ 455862
ey 455446
▁Kong 455255
▁Tùng 455186
▁laughed 454935
▁Thổ 454897
▁dọc 454895
▁issued 454649
▁distance 454544
▁triệt 454477
▁software 454286
▁Research 454285
▁tàng 454063
▁awarded 454002
▁Jan 453854
▁catch 453716
▁fashion 453624
TS 453611
▁proposed 453557
▁appeal 453487
▁division 453324
▁Cuối 453293
▁connected 453155
out 453072
▁dính 452958
▁units 452924
▁plane 452901
▁nearby 452880
▁đuôi 452774
▁counter 452769
-1 452697
▁Force 452689
▁Bob 452654
▁threat 452408
▁sút 452329
▁intriguing 451782
▁Đăng 451720
▁hô 451639
▁dàn 451582
▁Men 451546
▁nhượng 451306
▁beauty 451304
are 451264
▁Danh 451161
▁Republic 451107
▁Gold 451086
▁tournament 450942
▁Nhận 450871
▁Đã 450524
▁ultimately 450471
▁Oh 450171
▁confirmed 449879
▁chim 449802
▁Those 449572
▁nhũng 449489
ith 449363
▁tree 449316
▁Wales 449076
ium 448991
▁mass 448646
▁associated 448583
▁Dung 448552
▁conclusion 448474
▁08 448199
▁council 448132
▁healthy 448101
▁đồn 448080
▁00 447894
▁trộn 447831
▁Chiếc 447553
▁relevant 447298
▁.... 447226
▁target 447126
▁sees 446995
ised 446877
oo 446692
▁Daniel 446429
▁retired 446389
▁forms 446298
▁sentence 446108
▁mark 445651
▁listen 445645
▁chairman 445480
▁săn 445448
▁Women 445407
▁giãn 445389
▁believes 444692
▁thâm 444620
▁afraid 444513
▁considering 444467
▁earned 444221
▁hooked 444159
▁ages 444078
▁powers 443942
its 443677
▁Ab 443642
▁tách 443632
▁Navy 443408
▁walking 443374
▁Bạch 443308
▁Ne 443206
▁hôi 443177
▁pair 443170
ada 443156
▁horror 443144
▁Before 442953
▁03 442892
▁Madrid 442653
ham 442621
ty 442582
▁tết 442567
▁supported 442460
▁thói 442360
ES 442190
▁ái 442143
ology 442132
▁sharing 442099
▁accident 441891
▁Law 441886
▁brilliant 441838
ically 441831
▁strategy 441611
▁eating 441547
▁Maybe 441469
▁forever 441293
▁allowing 441138
▁Doanh 440967
▁sc 440936
▁lang 440885
▁See 440839
▁dry 440780
▁county 440774
▁coffee 440652
▁corner 440325
▁survive 440265
▁Museum 439943
▁cỡ 439941
▁tiệc 439868
▁56 439701
ast 439696
▁hiển 439673
▁scale 439498
40 439358
▁Max 439051
▁danger 438983
▁Loved 438796
▁obviously 438750
▁85 438693
wood 438506
▁Georgia 438285
▁` 438178
▁Su 438061
▁contributed 438054
▁Plus 438031
▁Let 437859
▁bù 437817
▁evening 437656
▁1989 437597
▁Mrs 437469
,5 437281
▁digital 437241
▁đĩa 437215
▁Ly 437187
▁táo 437164
▁route 437076
▁đà 437012
▁interests 436684
▁Hay 436142
▁birthday 436133
▁53 436047
▁Điểm 435977
let 435953
▁Justice 435894
▁02 435851
▁chuỗi 435709
▁initial 435665
▁perfectly 435503
▁rào 435346
▁bông 435244
▁contemporary 435098
ering 434993
▁trôi 434899
▁lò 434886
▁Note 434879
▁intense 434809
▁references 434712
▁Moscow 434372
15 434307
▁memories 434171
▁confidence 434100
▁ring 433851
▁xả 433673
▁freedom 433650
▁equipment 433595
▁core 433348
▁broadcast 433187
▁Northern 433161
▁hằng 433067
ett 432775
▁chose 432710
▁Thống 432619
▁Francisco 432555
▁tool 432509
▁teachers 432479
▁laid 432242
▁trưa 432139
▁Cty 432105
▁ảo 431723
lin 431570
▁command 431554
▁centre 431277
▁Chu 430956
+ 430815
▁conversation 430786
▁120 430780
▁progress 430676
▁singer 430665
▁AND 430502
▁ven 430469
▁weak 430221
▁benefits 430155
▁chest 430148
▁nha 430076
ano 429928
▁investors 429928
▁joy 429915
▁sun 429850
▁fuel 429660
▁cãi 429418
ical 429146
▁nở 429135
▁dance 428978
▁Truyền 428909
▁bodies 428692
▁lệch 428413
▁headed 428299
▁anyway 428215
▁square 427814
▁mày 427779
11 427647
▁represented 427607
▁đắt 427435
▁engine 427430
▁rà 427427
▁concepts 427387
▁hundred 427380
▁Tham 427273
▁fingers 427262
NG 427124
▁pushed 427102
▁Premier 426871
▁resource 426785
▁vs 426519
▁vang 426502
▁sections 426423
▁Mình 426410
▁mỏng 426103
ess 425956
▁deeper 425843
▁Valley 425839
iss 425798
▁Arsenal 425605
▁Lực 425147
▁literary 425056
.1 424800
res 424531
▁viễn 424411
▁neither 424288
▁bia 423778
ats 423762
▁struggles 423611
▁decade 423423
▁lawyer 423414
▁tiêm 423404
▁coast 423329
▁màng 423276
▁kg 423222
▁expectations 423190
▁relatively 423180
ao 422896
▁offering 422780
▁enter 422706
ford 422693
▁Sarah 422578
▁voters 422559
berg 422446
ene 422445
▁niêm 422389
▁1988 422178
▁Unfortunately 421775
▁youth 421654
▁cat 421597
▁vương 421400
▁approximately 421216
▁pleasure 421165
▁personally 421058
▁ghép 420919
▁suffering 420647
▁wondering 420401
▁Lợi 420367
▁Liverpool 420284
▁Chief 420231
mer 420178
▁điệp 419863
▁crowd 419672
▁giấu 419637
▁khoáng 419422
▁incredible 419281
▁thriller 418857
▁bọc 418829
▁chủng 418819
▁Civil 418342
▁Spain 418263
▁indeed 418156
▁literally 418105
▁faces 417742
▁Tuyên 417701
▁nhịp 417643
▁Tự 417397
▁expressed 417234
▁Fox 417115
▁CH 417114
▁Rất 416961
▁lính 416628
▁br 416619
▁Part 416322
▁Would 416236
▁secrets 416201
▁Toyota 416136
▁extended 415965
▁operating 415901
▁horse 415844
▁Asian 415827
▁concern 415730
▁treated 415521
▁handle 415495
▁HD 415470
▁Hằng 415316
▁Board 415307
▁publisher 415037
▁circumstances 414923
▁estimated 414876
▁describe 414582
ita 414577
▁GTVT 414572
▁Pr 414556
af 414551
▁users 414539
▁importance 414527
▁neck 414344
▁musical 414193
▁Was 414156
▁facing 414056
▁Thể 414052
q 413925
▁parent 413923
▁Go 413881
▁native 413609
▁killer 413576
▁adding 413570
▁Nhìn 413451
▁union 413424
▁method 413359
▁lips 413326
▁hidden 413308
▁About 413230
▁chair 413086
▁incident 412953
▁hỗn 412719
▁Taylor 412695
▁weather 412694
ky 412650
▁đam 412622
▁attempts 412327
▁Open 412213
▁tiny 411722
▁deals 411474
▁accepted 411434
ting 411304
▁passion 411167
▁trading 411036
▁shoulder 410751
▁bound 410689
▁xoay 410018
▁understood 409967
▁xưởng 409902
▁Thi 409509
▁requires 409458
▁dont 409373
▁chosen 409363
▁Bl 409299
▁barely 409244
▁friendship 409094
▁context 409085
▁Donald 409048
▁Manchester 409004
▁sót 408956
▁thánh 408953
▁bát 408879
gh 408711
▁bag 408660
▁acting 408568
▁giận 408568
▁personality 408343
▁Thăng 408299
be 408264
▁therefore 408239
▁Are 408232
▁classes 408162
▁domestic 407869
▁afternoon 407796
▁criminal 407734
▁occurred 407639
▁hối 407636
▁falls 407490
▁struck 407429
▁vehicle 407308
▁Edward 407005
ING 406856
▁Vị 406848
▁63 406506
▁stands 406503
▁prime 406433
▁surrounding 406385
ya 406361
▁vội 406253
▁refused 406247
▁Hoài 406154
▁đeo 406145
▁agent 405997
▁Year 405868
▁winter 405844
▁Saint 405582
▁Land 405509
▁struggling 405253
▁Terms 405173
▁Science 405061
▁kitchen 405026
▁hẹp 405002
▁Ohio 404981
▁Sư 404675
▁packed 404654
▁seconds 404510
▁Thư 404431
▁profit 404323
▁fish 404226
▁engaged 404132
▁spring 404129
▁MC 404127
ts 404102
▁valuable 404002
▁Sử 404001
▁academic 403885
▁chuyền 403658
▁committee 403643
▁failure 403479
▁heat 403473
▁accounts 403103
ass 403092
▁leg 403021
▁actor 402967
▁Riêng 402651
▁standards 402599
▁Huyền 402564
▁creation 402428
te 402226
▁Tăng 402004
▁bốc 401916
▁errors 401846
▁correct 401824
60 401752
▁ngộ 401692
▁somehow 401606
▁Mal 401573
▁stress 401426
ice 401416
▁thọ 401336
▁combined 401318
▁driver 401202
▁seek 401148
▁Mã 401104
▁bright 401059
ines 400942
▁aside 400731
▁bá 400627
▁diet 400627
▁Huyện 400621
istic 400566
▁finance 400433
▁Security 400402
▁57 400362
▁unusual 400271
▁Đạo 400039
▁copies 399884
▁discuss 399873
▁Galaxy 399423
▁Olympics 399372
▁Kennedy 399341
▁đế 399325
▁holiday 399239
▁wearing 399237
▁selected 399202
▁advantage 399197
▁promise 399191
▁guilty 399058
▁signs 398709
▁net 398683
▁Festival 398554
ants 398260
▁dreams 398043
▁Lam 397897
▁thiệp 397652
45 397636
▁stone 397458
oy 397424
▁eastern 397145
▁loan 397119
▁choices 397035
ments 397011
▁mm 396896
▁stayed 396540
▁Động 396339
▁lady 396320
▁Thay 396205
▁shut 396205
▁Rose 396165
▁puts 396088
▁aspect 395930
▁Kingdom 395760
▁Pennsylvania 395731
▁discover 395629
▁alternative 395582
▁ngọn 395330
▁Dưới 395140
▁Summer 395140
▁History 394889
▁quiet 394835
▁posted 394809
▁prove 394542
▁measure 394244
▁Bồ 394105
▁rising 394017
▁TO 393939
.2 393843
▁impressed 393710
▁destroyed 393502
▁Show 393386
▁cry 393191
▁pleased 393179
▁metal 393121
▁identity 393035
▁Nick 392968
▁vắng 392864
▁tha 392856
▁Bất 392770
▁vehicles 392571
▁hoped 392457
▁700 392452
▁05 392412
▁Taliban 392406
ered 392264
▁strike 392245
▁remove 392235
▁Xin 392215
▁accurate 392059
▁expensive 392054
▁Lewis 391937
▁Kiên 391799
▁Inter 391509
▁trees 391193
▁plants 391182
ative 391074
▁66 391037
▁identified 390977
▁count 390967
▁thắc 390603
▁tuân 390393
ely 390078
▁sợi 390078
▁storm 389938
▁beach 389866
▁gotten 389691
▁protection 389653
▁fund 389529
▁fought 389496
▁ổ 389470
▁reform 389340
▁traffic 389221
▁reviewed 388934
ze 388820
▁Thậm 388755
▁Nhĩ 388671
VN 388641
▁Get 388589
▁thấm 388523
▁nướng 388505
▁Ann 388362
▁teen 388221
▁Gu 388120
▁Jane 387624
▁Ed 387596
ius 387474
▁Bến 387399
▁Tiếng 387397
▁authority 387255
▁rescue 387179
▁display 386780
▁1986 386670
▁phun 386229
▁trilogy 386170
▁coverage 386047
▁vẹn 386023
▁lợn 385867
▁mịn 385795
▁1975 385737
▁Trị 385688
▁complicated 385672
▁ngắm 385423
▁committed 385417
▁talent 385399
▁tend 385384
▁forth 385308
▁shooting 385161
▁bigger 385158
▁taste 385098
ud 385076
▁yesterday 385022
▁Public 384949
▁driven 384815
▁legs 384798
▁streets 384771
▁thợ 384561
▁defeated 384525
end 384445
ere 384423
▁suicide 384336
▁1984 384290
▁regional 384069
▁1987 383923
ella 383877
▁vision 383872
▁lạm 383778
▁mi 383708
▁injury 383648
▁index 383615
▁nhạy 383423
▁Nhờ 383353
▁Úc 383352
▁chìm 383336
▁inner 383202
▁ngạc 383184
▁option 383171
▁models 383126
▁injured 383099
▁methods 383099
▁map 382868
▁yeah 382667
▁heads 382648
▁farm 382647
▁sector 382435
▁wing 382390
▁Phượng 382203
▁Thần 382184
▁machine 381917
▁bridge 381912
▁nấm 381879
▁khiếu 381878
▁exist 381667
▁flying 381657
▁Michigan 381571
▁Following 381476
▁Adam 381469
▁candidates 381254
▁vampire 381184
▁laptop 381168
▁loa 381128
▁stuck 381074
▁Giới 381062
▁Today 381040
▁Ryan 381035
▁Andrew 380895
▁dollar 380771
▁Republicans 380524
▁info 380448
▁Israeli 380364
▁scheduled 380346
▁Alexander 380268
▁59 380248
▁mầm 380241
▁khát 380219
▁apply 380131
▁USA 380102
▁primarily 379898
▁58 379881
▁Tìm 379518
▁predictable 379515
▁Excellent 379514
▁require 379392
▁reduce 379361
▁62 379090
▁explanation 378911
▁đỗ 378870
ber 378821
ena 378805
ix 378762
▁package 378762
▁unexpected 378746
▁Tú 378721
.3 378663
▁statements 378416
▁referred 378377
▁returning 378344
ki 378130
▁suspect 378066
▁imagination 377719
▁lovely 377581
▁ạ 377561
▁values 377384
▁widely 377160
▁rắn 376975
▁Tour 376682
▁gained 376662
▁task 376623
▁combat 376286
ost 376175
▁experts 376165
▁drew 376076
▁tracks 376075
▁Chất 376069
▁advance 376049
▁Up 375840
▁Sea 375696
▁defeat 375680
▁sl 375660
▁72 375579
▁angry 375447
▁supporting 375439
▁68 375376
▁khuyết 375282
▁massive 375268
▁worry 375185
▁inspiring 374920
▁thuần 374884
per 374778
▁bận 374758
▁chuột 374750
ff 374683
▁yards 374679
▁Thật 374623
▁thuẫn 374585
▁philosophy 374372
▁latter 374133
▁articles 373972
▁tight 373923
▁Khoảng 373863
▁terrible 373729
▁launch 373498
▁khoe 373455
▁khâu 373395
▁governor 373260
▁victim 373072
▁cáp 372780
▁lậu 372769
▁passing 372651
80 372350
▁vĩ 372183
▁trội 371993
▁warned 371754
▁CEO 371746
▁par 371704
▁matches 371659
▁dán 371609
▁67 371566
▁Vi 371436
▁friendly 371171
▁plastic 370902
▁Fire 370744
▁enjoying 370721
▁noticed 370538
▁Night 370487
▁Har 370485
▁Pl 370135
▁Putin 370108
▁mổ 370014
▁leo 369999
line 369962
▁thick 369859
▁responsibility 369733
▁historic 369303
▁Fl 369241
▁affected 369082
▁criticism 369045
▁1982 369015
▁relations 368970
▁opposite 368951
ala 368921
▁odd 368885
ied 368737
▁Champions 368714
▁poetry 368535
▁Phải 368245
▁CBS 368187
▁supply 367976
▁hardly 367975
▁dedicated 367931
▁Four 367831
▁Supreme 367539
▁relief 367522
▁jump 367460
▁comic 367318
▁existence 367310
.5 367290
▁Eastern 367210
▁appropriate 367141
▁ong 367073
▁mét 366940
▁thrown 366873
▁1985 366793
▁củ 366776
▁04 366505
▁1. 366444
▁Tony 366211
▁phu 366189
ase 365969
EN 365934
▁tied 365865
▁province 365862
▁Perhaps 365801
▁Latin 365790
ver 365605
tr 365485
QĐ 365352
ew 365264
▁Kiến 365228
▁hà 365072
▁warning 365049
cm 364890
▁mini 364803
▁nodded 364725
idae 364466
▁emergency 364418
▁wedding 364307
▁clothes 364211
▁Te 364105
▁secondary 364073
▁Lady 364014
▁presents 363987
▁favor 363949
▁ships 363860
▁insights 363802
▁Power 363667
▁Mục 363414
▁worried 363329
▁việt 363319
▁Per 363153
▁existing 363029
▁citizens 362907
▁throw 362781
ps 362671
▁enemy 362665
▁approved 362551
▁smartphone 362435
▁Ta 362406
▁didnt 362362
▁carrying 362181
▁wear 362178
▁võ 362094
▁Kate 361893
he 361453
▁Argentina 361314
▁heavily 361145
▁entry 361116
▁Football 361066
▁walls 361016
▁frequently 360867
▁dinner 360851
▁wisdom 360802
▁solution 360766
16 360703
▁mốc 360691
▁dogs 360676
▁cong 360512
▁Thiếu 360270
▁treat 360193
▁xách 360125
▁tẩy 360020
▁Later 359974
▁millions 359955
▁laughing 359805
▁Trịnh 359758
▁tension 359749
▁taxi 359657
ama 359507
▁cống 359474
/2016 359362
▁Out 359188
▁inter 359170
▁hits 359082
▁07 358935
▁tiễn 358857
▁Hiền 358775
▁Muslim 358574
yl 358437
▁colors 358226
▁Reading 358197
▁Such 358124
▁Lãnh 357976
▁constantly 357948
▁identify 357929
nh 357876
▁ok 357848
▁silver 357836
▁stick 357801
▁1930 357725
▁communities 357642
▁Ví 357609
▁Jersey 357577
▁corporate 357460
▁tests 357406
▁smiled 357375
▁busy 357187
▁Android 356881
▁Anne 356838
▁sought 356796
▁anger 356782
▁airport 356723
▁yard 356625
▁suggests 356509
ger 356492
▁rũ 356450
▁Trí 356354
▁apartment 356331
▁strongly 356223
▁unknown 356198
▁contained 355964
▁del 355846
▁boat 355595
▁argument 355555
▁Cross 355540
kin 355347
▁doctors 355224
▁guard 354886
▁Associated 354696
▁hi 354693
▁Chuyên 354670
▁cuts 354510
▁thin 354482
▁đắc 354265
▁captain 354200
▁Tôn 354078
▁Jean 354067
▁gạch 354051
▁Kiều 354034
▁saved 354014
▁typically 353891
▁đói 353874
▁funding 353739
▁adventures 353608
▁Hướng 353517
▁Hạnh 353416
▁NATO 353368
▁involving 353349
ax 353298
▁Thạch 353271
▁mọc 353266
▁sick 353204
▁Nhi 353125
▁baseball 353087
▁planet 353064
▁Campuchia 353008
▁1979 352867
88 352780
eth 352748
▁bear 352625
▁Fort 352491
▁Sang 352389
▁industrial 352317
▁offensive 352286
▁function 351986
▁combination 351963
22 351638
▁tuệ 351629
▁notice 351577
▁documents 351501
▁Cát 351396
▁essential 351206
▁moral 351168
-3 351058
▁votes 350868
▁Arab 350614
▁titles 350515
▁paying 350463
▁Sao 350246
▁OF 350208
▁sharp 350142
▁mờ 349906
▁broad 349879
▁newspapers 349863
▁dịu 349786
▁nồng 349748
▁owners 349657
/2015 349516
▁thô 349474
▁installment 349413
▁measures 349402
▁gối 349317
▁handed 349280
▁pointed 349265
▁attorney 349258
▁soạn 349128
▁honor 349055
▁cắm 348888
▁rural 348874
▁Đô 348871
▁Arts 348800
IS 348689
▁capacity 348425
▁visited 348312
▁1.000 348296
att 348208
▁KH 348036
▁Ray 348015
21 347942
▁mountain 347926
▁wood 347893
▁comedy 347862
▁tứ 347830
▁Victoria 347792
▁honestly 347791
▁Korean 347776
▁chăng 347549
▁materials 347478
▁constant 347388
▁positions 347334
▁Thanks 347060
▁hall 347042
▁Nên 347023
▁Tu 347023
▁Business 346953
▁environmental 346866
▁gi 346861
▁CN 346797
▁UN 346777
▁ân 346740
way 346725
▁recovery 346702
▁legislation 346675
ock 346494
▁restaurant 346481
▁shook 346232
▁deaths 346195
▁Cuba 346184
▁reduced 346141
int 346075
▁finishing 346042
▁differences 345931
▁vả 345912
▁giant 345813
: 345790
king 345747
▁ấp 345743
▁drink 345414
▁Jr 345338
▁Port 345267
▁boyfriend 345157
▁scientists 345149
▁ab 345139
▁En 345128
▁increasing 345106
▁hoan 344970
▁tired 344903
▁stores 344823
▁Matt 344682
▁vướng 344565
▁cụm 344539
▁normally 344490
▁cắp 344471
▁universe 344409
▁tradition 344222
▁Education 344111
▁stations 344001
▁mỏ 343972
▁assistant 343792
▁capture 343764
▁sáu 343741
▁Nghe 343560
▁participate 343510
▁que 343510
.9 343388
▁serves 343354
▁Scottish 343335
▁matters 343232
▁fired 343099
▁listening 343046
▁bẩn 342980
▁ốc 342947
▁adopted 342806
▁divided 342668
▁Tokyo 342656
▁kĩ 342649
ney 342549
bn 342500
▁Berlin 342474
▁confused 342472
▁tie 342360
▁giặt 342326
ory 342258
▁newly 342235
▁painting 342230
▁upper 342196
▁Thịnh 342142
▁1983 342120
▁mạn 342012
▁Chưa 341989
▁Cr 341973
▁crash 341914
▁incredibly 341901
▁Santa 341757
▁Empire 341705
▁lồ 341687
▁## 341595
▁opposed 341484
▁ensure 341454
▁Ag 341406
▁continuing 341370
▁Really 340919
▁bể 340919
▁Thạnh 340869
▁Hillary 340791
▁options 340765
▁Full 340726
▁conservative 340692
▁producer 340648
▁attacked 340317
▁Min 340251
▁HĐND 340230
▁Hiếu 340144
▁nề 339905
▁urban 339771
▁cậy 339758
IC 339748
▁patient 339667
me 339621
▁snow 339585
▁quyến 339500
off 339478
▁Del 339448
▁Gần 339339
▁Chẳng 339325
▁policies 339264
▁vice 339148
▁territory 339079
▁declared 338969
▁Cửa 338840
ack 338836
▁chai 338737
▁grandson 338725
▁losses 338670
▁nations 338289
▁Quỹ 338177
▁Giờ 338128
▁opinions 338043
▁bl 338042
▁Christians 337885
▁Môi 337847
▁seasons 337805
▁photographs 337489
▁split 337412
▁Cha 337381
▁ngõ 337374
▁đắp 337263
▁sons 337201
▁muộn 337179
▁stepped 337102
ura 337088
▁internal 336951
▁Gen 336848
▁everyday 336795
70 336668
▁chemistry 336643
-2 336372
▁wine 336366
▁Dutch 336349
▁alongside 336309
▁comprehensive 336301
▁mar 336281
her 336179
▁Gi 336019
▁dress 335951
ann 335904
▁mẻ 335853
▁selection 335786
13 335737
▁anymore 335703
▁CSGT 335694
/2013 335686
▁Thúy 335627
▁admitted 335623
▁Battle 335617
era 335583
▁protagonist 335529
▁mạo 335452
▁dắt 335399
▁Nghiên 335339
▁Looking 335332
▁cúng 335004
▁Trinh 334820
ĐT 334730
▁tọa 334725
▁drawing 334375
▁recognized 334366
▁khổng 334357
.6 334354
▁Foundation 334344
▁mây 334227
▁causes 334225
▁violent 334216
▁thằng 334164
▁instance 334163
▁Brian 334104
▁MP 334036
ola 333861
▁brown 333730
▁chuộng 333716
▁mad 333620
▁champion 333406
▁turner 333327
ire 333236
▁conducted 333052
▁reminded 333040
▁tựa 332889
25 332864
▁closely 332860
▁prose 332759
▁Nov 332695
▁bút 332629
▁increasingly 332578
▁declined 332556
▁rec 332541
▁emotion 332462
▁FBI 332437
▁guitar 332347
▁promised 332335
▁GS 332234
▁doesnt 332232
▁Triệu 332229
▁06 332225
▁ngơi 332201
▁Finally 332045
▁consumer 331881
▁sight 331736
▁anywhere 331672
▁Simon 331641
▁Tô 331631
▁raising 331625
▁DVD 331621
▁educational 331609
▁dĩ 331596
▁khoan 331577
▁Miller 331575
▁fallen 331572
▁census 331321
▁1972 331211
▁Davis 331199
▁organizations 331199
.8 331092
▁reaction 331037
▁Dec 330852
▁1945 330536
ence 330505
▁chán 330375
▁premise 330292
▁reaching 330170
▁Phim 330150
▁rain 330118
lượng 330093
ont 330046
▁Iraqi 330011
▁Author 329938
▁Dầu 329903
▁Maria 329890
▁yết 329681
▁1968 329526
▁Sky 329525
▁Viên 329416
▁delivery 329389
▁critics 329244
▁expert 329191
▁survey 329093
▁ass 329036
▁Dark 329022
▁Ánh 328982
▁ức 328928
▁somewhere 328882
▁basically 328827
▁expression 328748
▁carefully 328246
ON 328206
▁khói 328104
▁mười 328093
▁Lần 328071
▁Ty 327966
▁88 327962
▁Wilson 327931
▁Among 327787
17 327751
▁empty 327584
▁application 327529
.4 327518
▁device 327491
▁69 327481
▁euro 327449
▁themes 327435
▁posting 327394
▁suit 327367
▁Islamic 327350
▁bổng 327299
▁mysterious 327222
▁Par 327187
▁fears 327170
▁protein 326967
▁outstanding 326911
▁dating 326873
▁Bell 326788
▁carbon 326753
▁asks 326674
▁roles 326596
▁recession 326539
▁1940 326454
▁sisters 326314
▁nhẫn 326238
▁Na 325985
▁stupid 325773
▁hat 325672
ker 325670
▁achieve 325604
▁PR 325576
▁Town 325554
▁Free 325536
▁principles 325497
▁trọ 325474
▁wealth 325245
▁kick 324973
▁gánh 324927
AN 324832
ities 324776
▁đẻ 324766
▁cước 324739
▁Golden 324732
▁CĐ 324628
▁ám 324587
▁subjects 324578
▁ném 324542
▁Far 324484
▁Li 324328
▁belief 324286
▁bón 324259
▁chúa 324253
▁loose 324106
▁rỡ 323996
▁AS 323820
▁Ng 323815
▁lọt 323739
▁heo 323714
▁Rome 323660
▁extensive 323598
▁sky 323533
▁presentation 323434
▁Cà 323189
▁lie 323145
▁settled 323108
▁filed 323031
▁illegal 322691
▁entertainment 322652
▁error 322595
▁Have 322553
▁secretary 322485
▁Sim 322434
▁Mon 322341
▁xạ 322062
/2014 322051
▁connect 322003
ily 321985
▁request 321902
▁Coast 321863
▁khéo 321850
▁causing 321814
▁recording 321742
▁recipe 321589
▁mistakes 321524
▁Film 321415
▁san 321315
▁audio 321230
▁Nguồn 321113
▁backed 321027
▁Cẩm 320976
▁proper 320877
▁nồi 320838
▁Radio 320811
▁applied 320729
▁Professor 320695
▁Did 320652
▁golf 320648
▁touched 320566
é 320558
▁Son 320527
▁daughters 320436
▁BV 320308
▁mù 320276
ette 320269
▁trừng 320268
▁prominent 320263
▁truck 320228
▁lesson 320163
▁mile 320110
▁patterns 320069
▁searching 320013
▁pure 320005
▁lỏng 320000
▁seats 319943
.7 319907
▁equal 319877
▁championship 319820
14 319585
▁bomb 319566
▁dọn 319560
▁1976 319514
▁Đơn 319476
▁vất 319296
ages 319074
▁Ash 319064
▁buried 318926
▁studying 318915
▁Any 318905
▁researchers 318786
▁practices 318722
NĐ 318668
▁GM 318642
▁Ham 318564
▁threw 318477
▁dozen 318418
▁Where 318416
▁Sal 318341
▁Lịch 318305
-5 318240
▁Parliament 318146
▁grabbed 318119
▁Awards 318063
ru 317974
itt 317778
▁vươn 317698
▁operated 317633
IN 317535
▁acquired 317352
▁BHXH 317267
▁vast 317016
▁thoái 316835
▁confusing 316678
▁Tối 316552
▁cheap 316375
▁armed 316367
▁chiêu 316339
▁Mua 316322
▁acts 316227
▁Tiêu 316180
▁exception 316166
▁Hospital 316159
▁Tri 316133
▁Jordan 316015
▁solve 315921
▁76 315915
ably 315781
▁1981 315721
▁foundation 315662
▁Ronaldo 315593
ck 315580
▁exercise 315557
-7 315536
▁survived 315532
▁NH 315398
▁Story 315223
za 315123
▁gang 315120
▁founder 315084
▁Illinois 315006
▁journal 314977
▁ngón 314954
▁possibility 314954
▁browser 314909
▁specifically 314768
▁neighborhood 314698
▁Columbia 314589
▁duty 314509
▁receiving 314447
▁triều 314333
▁maintain 314306
18 314240
▁khứ 314233
▁Mor 314166
▁dâng 314092
▁hổ 314065
▁bì 313830
▁Mùa 313770
▁portion 313710
▁Mont 313701
▁Camp 313622
▁Twitter 313597
▁Several 313583
▁Hiệu 313514
▁defined 313437
▁improved 313437
▁guessing 313420
▁Team 313170
▁Jews 312941
▁assets 312940
▁thats 312934
▁hasn 312871
▁Morgan 312835
▁joint 312589
▁aged 312576
ides 312575
▁li 312562
▁Gordon 312520
▁returns 312443
▁decent 312437
▁mồ 312424
old 312409
▁unlike 312399
▁bùng 312358
▁encourage 312328
▁nạp 312295
▁Beach 312171
▁click 312056
▁answered 311991
▁Ken 311889
▁denied 311866
▁dã 311790
▁1974 311751
▁Honda 311721
▁tall 311621
▁contain 311582
▁Col 311326
▁basketball 311292
▁Master 311283
ko 311213
▁Thầy 311161
▁facility 311062
▁featuring 310819
▁mì 310796
▁hàn 310770
▁determine 310712
▁Cal 310684
▁discussed 310678
ora 310654
▁storage 310619
▁Sydney 310599
▁granted 310470
▁ngươi 310335
▁lau 310213
▁researched 310123
pp 310110
▁versions 310045
▁IP 309964
▁comfortable 309865
▁institutions 309864
▁inspiration 309784
▁Thiện 309668
▁Meanwhile 309586
▁mistake 309510
▁supporters 309486
▁mâu 309311
▁1978 309289
▁damaged 309274
ona 309234
▁Mel 309113
▁races 309110
▁Mẫu 309094
va 309033
▁trained 308978
▁nếp 308969
▁publication 308933
▁Labour 308891
ible 308867
▁conversations 308677
▁translation 308626
▁wrapped 308537
ord 308499
▁Mau 308494
▁Anna 308244
▁Records 308207
▁Nations 308160
▁TR 308052
▁Yến 308032
ert 307986
▁stronger 307901
▁capable 307880
▁mysteries 307760
▁nụ 307757
▁IN 307464
▁orders 307457
ox 307449
▁rarely 307436
▁Sony 307223
▁Lạc 307205
▁Beijing 307128
▁marked 307026
▁proved 307008
▁liều 306998
▁pack 306936
▁lồng 306931
red 306886
▁73 306831
▁GDP 306807
▁courage 306576
▁shortly 306461
▁cook 306400
▁wounded 306391
▁Holy 306282
elle 306189
▁Ali 306065
▁Poland 305991
▁cup 305928
▁Hot 305888
▁hưu 305839
▁worldwide 305781
▁Gl 305774
▁Kar 305736
▁lover 305683
_ 305645
▁rough 305630
▁77 305586
▁Conference 305275
▁Massachusetts 305231
▁ham 304997
▁pilot 304934
▁Đi 304760
▁Wood 304727
▁Rồi 304689
▁cooking 304646
▁Ho 304514
▁Fr 304470
▁nghiện 304431
▁detective 304261
▁Cung 304205
▁immediate 304153
▁Eric 304145
▁tales 304065
▁intelligent 304041
▁Sl 304034
AL 303852
▁attempted 303843
▁Nhóm 303752
▁wh 303671
ms 303656
▁1973 303626
▁cells 303548
▁bỗng 303397
▁ngựa 303314
▁graphic 303198
ny 303143
▁Kevin 303106
well 303104
▁Airlines 303082
▁arts 303081
▁Bàn 303073
▁củng 302992
house 302840
▁false 302599
▁overcome 302508
▁decline 302468
▁Myanmar 302403
▁adds 302390
▁lôi 302248
▁1920 302175
▁phiền 302123
▁Arizona 302080
▁semi 302063
▁khoác 302038
▁museum 301999
▁label 301932
ric 301931
▁meat 301867
▁mảng 301819
▁Back 301811
▁Thừa 301783
▁railway 301738
▁lây 301522
▁weird 301506
▁cutting 301470
▁Line 301216
▁ruộng 301156
so 300906
▁lấp 300896
▁Too 300860
▁cookbook 300733
▁84 300673
ster 300604
▁controlled 300599
▁constructed 300557
▁facilities 300462
▁Next 300424
kh 300289
ids 300253
▁attend 300222
▁đúc 300214
▁pool 300095
▁faster 300017
▁consumers 299846
▁Hầu 299748
▁lở 299748
▁Rob 299736
ites 299643
▁fat 299593
▁dying 299543
▁CS 299404
▁mến 299402
tháng 299379
▁settlement 299340
▁multi 299171
▁Kỹ 299139
▁End 299104
▁fix 298868
▁Tre 298816
▁Đừng 298811
▁Ram 298751
▁gìn 298739
▁Vấn 298656
▁garden 298559
▁tráng 298535
▁boss 298493
▁TAND 298390
▁harder 298388
▁hanging 298259
▁channel 298233
▁surprising 298196
orn 298179
▁dập 298104
▁bỏng 298096
▁Barcelona 298048
ort 298016
▁guns 297994
▁phím 297976
▁Vàng 297912
▁complaint 297893
▁tam 297872
▁lấn 297827
▁ruled 297767
▁Easy 297753
▁nhôm 297609
▁Bị 297569
▁decides 297487
▁Family 297443
oh 297346
▁74 297308
▁port 297301
▁Light 297296
▁challenging 297216
▁78 297213
AC 297080
▁manage 297067
▁commander 297034
▁Saudi 296996
▁86 296977
▁Disney 296804
▁replace 296689
▁Tương 296600
▁Cor 296544
▁affect 296530
ind 296511
▁thắt 296470
▁shock 296434
▁forest 296288
▁mess 296236
▁trượt 296200
AT 296160
we 296068
▁Ministry 296043
▁Jay 296041
▁Philadelphia 295984
ado 295953
ô 295920
▁loans 295896
▁Had 295848
ake 295810
▁talked 295729
▁plain 295553
-9 295402
-8 295398
▁prefer 295239
▁HS 295222
▁weren 295206
▁doors 295192
▁Lu 294955
▁Stone 294934
-4 294688
▁Girl 294654
▁crimes 294652
▁ourselves 294644
▁clients 294502
▁touching 294459
▁Through 294285
▁Lincoln 294253
▁labor 294093
/2017 294014
▁speaks 293971
ame 293970
▁attitude 293964
▁Chapter 293892
▁figured 293815
▁1977 293798
▁1000 293795
▁birds 293604
▁rival 293537
▁bid 293517
ning 293498
▁sixth 293457
▁nhạt 293450
▁testing 293447
hip 293444
▁Pat 293348
▁ties 293313
▁panel 293096
▁Sometimes 293045
▁Trái 293023
▁extreme 293009
▁cried 292935
▁injuries 292931
▁96 292740
CH 292704
▁quét 292624
▁1967 292589
▁61 292587
▁1969 292474
▁beliefs 292470
▁hole 292320
▁survival 292135
24 291988
▁collected 291987
▁prepare 291977
▁deliver 291975
▁Corp 291754
▁ruling 291675
▁till 291675
▁gifts 291624
▁Water 291576
▁HIV 291515
▁Atlantic 291475
OR 291373
▁dò 291304
▁Loại 291194
▁lít 291074
▁98 290955
▁Cai 290909
▁Director 290856
▁curious 290815
▁Review 290800
▁Kelly 290755
▁revenue 290679
▁refreshing 290592
▁shift 290483
▁abandoned 290415
▁Bad 290401
▁campus 290275
▁visiting 290165
▁zone 290162
▁Charlie 289977
▁officially 289902
▁Hope 289834
▁Much 289775
▁ordinary 289767
▁bond 289671
▁cap 289636
▁household 289555
▁expanded 289489
▁elsewhere 289434
▁titled 289422
▁AT 289409
▁Vận 289320
▁videos 289302
▁platform 289190
▁grace 289170
ents 289134
▁mortgage 288949
▁contrast 288942
▁flu 288929
▁humanity 288872
▁soi 288834
▁recognize 288820
▁proposal 288666
▁CA 288527
▁đệ 288501
▁Financial 288440
▁discovery 288417
▁kiss 288310
▁describing 288277
▁settings 288228
▁roll 288176
▁download 288170
▁tháp 288142
▁rực 288035
▁represent 288004
▁THIS 287965
▁Milan 287957
▁nát 287930
▁Heart 287904
▁Being 287866
▁appearances 287812
▁reporters 287757
▁chain 287738
▁perform 287686
▁83 287685
▁lights 287652
▁đầm 287604
▁creates 287525
▁Colorado 287468
▁Lạt 287391
▁healing 287204
▁79 287175
▁provoking 287124
▁wondered 287090
▁Journal 287063
▁Ngãi 287045
▁Network 286992
▁Val 286983
iness 286964
▁locations 286906
▁retirement 286894
▁rèn 286835
▁surgery 286807
▁horrible 286712
ex 286683
▁disappoint 286385
▁alleged 286381
▁assigned 286320
▁consists 286283
▁Rep 286218
-10 286166
▁tre 286133
▁letting 286118
▁threatened 286105
▁reveal 285996
ows 285958
ias 285841
▁khôi 285816
▁Vừa 285689
ja 285637
▁prohibited 285599
▁Vũng 285459
▁applications 285402
▁Moon 285401
▁vân 285373
▁khống 285369
▁Avenue 285304
▁row 285140
der 285107
oth 285018
▁Howard 284722
▁appreciated 284721
▁chip 284480
▁clever 284373
▁dừa 284371
GB 284219
▁bảy 284186
▁Major 284139
▁Bo 284128
▁magical 283882
IT 283869
,6 283778
▁factors 283736
▁covering 283730
▁Las 283505
▁breaks 283503
▁greatly 283495
▁unlikely 283479
▁wake 283479
▁Sk 283413
▁82 283398
▁1971 283363
ev 283270
▁poll 283267
▁lets 283255
▁Ke 283178
▁chinh 283017
▁Ge 282900
▁scheme 282775
▁centuries 282661
▁yellow 282552
ft 282514
ram 282468
▁ngâm 282465
▁aimed 282437
▁bấm 282385
▁shopping 282383
mann 282377
▁liberal 282323
▁nại 282257
▁Đáng 281960
▁raw 281798
▁gl 281769
▁voted 281586
▁blow 281520
▁Patrick 281501
▁designs 281499
▁Diego 281424
▁hired 281422
▁visual 281376
▁Xuất 281323
▁successfully 281185
▁Assembly 281130
▁favorites 281056
▁remarkable 280963
▁vivid 280903
▁arrest 280873
▁Duke 280652
▁Hãng 280601
▁medicine 280494
▁element 280271
▁welcome 280257
▁tím 280254
▁Garden 279976
▁sạc 279766
ose 279751
90 279683
▁explaining 279669
▁soldier 279663
▁mượn 279625
ves 279621
▁Pe 279594
▁composed 279498
▁Fed 279387
▁careful 279356
▁Children 279139
▁fault 279126
▁Sông 279084
▁nhầm 279035
▁attached 279004
▁subsequently 278982
▁ôtô 278954
▁regulations 278887
▁Mo 278735
▁merely 278696
▁solo 278617
▁mũ 278610
▁wave 278474
▁Mi 278473
▁illness 278243
▁reputation 278204
▁Thêm 278150
▁teeth 278081
▁ao 278006
ese 277994
▁rung 277987
▁resolution 277917
▁opens 277900
▁politician 277850
** 277734
▁89 277732
▁jail 277638
uc 277537
▁Sw 277531
▁insightful 277471
▁1,5 277330
▁ear 277321
▁Han 277268
▁Lo 277219
▁Tên 277159
▁Social 277136
▁actress 277111
▁happiness 277101
▁lát 277069
▁sw 277046
uy 276918
▁pet 276885
▁Foreign 276708
▁huyền 276680
▁drinking 276667
▁sending 276657
▁sốc 276583
▁dramatic 276528
▁throat 276504
▁messages 276451
ien 276397
▁paint 276381
▁Boy 276361
▁sưu 276324
▁kindle 276265
▁trinh 276228
▁Nh 276163
▁ABC 276159
▁taxes 276139
▁vây 276091
▁đồi 275905
ening 275843
▁IV 275835
▁SO 275825
▁Human 275821
▁Afghan 275792
▁Mexican 275721
▁engineering 275697
▁Liêm 275677
▁tragedy 275475
▁Jeff 275352
▁Medical 275295
ome 275288
▁satisfying 275272
▁lovers 275217
▁factor 275209
▁CIA 275161
▁Books 275147
▁chart 275123
▁waited 275055
ren 275041
▁clubs 274987
ida 274939
▁severe 274898
▁Trời 274765
▁windows 274707
▁talented 274657
▁argued 274517
,4 274496
▁Arthur 274483
▁Nghi 274470
▁ngạch 274467
ators 274405
oll 274272
▁ne 274206
▁fields 274168
▁Da 274120
▁Jason 274100
▁interviews 274088
▁Cảm 274074
▁nén 274050
▁jumped 274023
ê 273999
▁concert 273927
▁ti 273892
▁fictional 273427
▁piano 273265
yn 273025
▁nicely 273023
▁delightful 272965
▁khe 272825
▁rejected 272674
▁Lệ 272646
▁vạn 272642
▁1964 272614
▁Captain 272498
▁rạng 272497
▁user 272396
▁exercises 272375
li 272123
▁focuses 272066
▁92 271990
▁ST 271987
ays 271965
▁Hu 271918
ink 271910
▁lucky 271822
▁repeated 271815
▁reviewers 271744
▁Đắk 271743
▁regret 271681
▁móng 271672
▁hide 271646
▁secure 271643
▁te 271639
▁lứa 271616
▁session 271607
▁pattern 271533
▁passengers 271469
ico 271337
▁Anthony 271323
▁Chứng 271316
▁electric 271230
ank 271177
▁ơi 270973
▁Sol 270939
▁racing 270834
▁iron 270757
▁closing 270608
▁shirt 270586
▁graduated 270563
rom 270535
▁rushed 270411
▁agencies 270401
/19 270318
▁marry 270275
▁blame 270218
▁pregnant 270208
▁Phil 270005
▁Cập 269981
▁drove 269942
0 269760
▁advertising 269736
▁Cây 269535
▁stomach 269502
▁poems 269491
▁Detroit 269469
▁consequences 269403
▁Grace 269401
▁medal 269306
▁87 269303
▁alcohol 269294
▁promoted 269256
▁đệm 269200
▁tiệm 269172
-6 269149
itz 269125
▁limit 269111
▁lying 269015
▁thạch 269015
hi 268904
▁pulling 268897
▁achieved 268786
▁kinds 268723
▁thấu 268629
air 268600
pt 268599
▁xông 268564
▁gr 268563
▁formal 268428
▁folks 268412
▁prayer 268333
▁Online 268329
▁Lập 268255
▁cưỡng 268254
▁Tinh 268145
▁pl 268116
▁chênh 268022
▁politicians 267982
▁Anderson 267981
▁solutions 267848
▁roof 267828
▁cay 267749
▁Rules 267581
▁spin 267545
/2012 267493
▁Thấy 267430
▁biography 267423
▁poverty 267403
▁towns 267332
▁resulted 267263
▁damn 267257
▁93 267248
▁Áo 267247
▁teens 267230
▁FC 267137
▁awards 267125
▁remembered 267055
▁1965 267030
▁Website 267025
oe 267004
ua 266942
▁printed 266912
▁finger 266868
▁bắp 266854
▁category 266838
▁equally 266823
▁rooms 266657
▁struggled 266587
▁SP 266563
▁dec 266538
▁worthy 266459
▁Trao 266414
▁buýt 266414
▁teenage 266376
▁frame 266350
▁proud 266332
▁feed 266286
▁editing 266206
▁graduate 266198
▁đớn 266154
▁lifestyle 266073
▁Championships 266021
▁badly 265968
▁Everything 265902
▁convinced 265681
▁fate 265577
,2 265446
ten 265380
▁Bá 265366
,8 265332
▁Thân 265150
▁Gar 265149
▁agents 265149
▁educated 264964
▁Xuyên 264952
▁Special 264849
▁lùi 264839
▁communication 264838
▁effectively 264827
▁enjoys 264824
▁thầm 264790
▁minds 264656
▁Pa 264532
▁transfer 264529
▁110 264522
▁múa 264440
▁Ra 264381
▁đáy 264362
▁girlfriend 264290
▁Hotel 264153
▁evolution 263939
▁Live 263852
▁begun 263725
▁briefly 263586
▁Egypt 263501
▁forgotten 263339
▁languages 263323
▁Mu 263310
▁resulting 263245
▁steel 263220
▁Allen 263214
▁governments 263175
▁xơ 263108
▁ngợi 263076
▁Hard 263022
▁disaster 262963
▁Corporation 262942
▁Điển 262939
▁Quyền 262826
▁scandal 262820
▁tụng 262782
▁vuông 262761
▁grab 262662
▁Mad 262657
▁permanent 262582
▁thousand 262538
▁tea 262513
▁nảy 262435
▁Christianity 262420
▁proof 262341
▁upset 262305
▁offices 262292
▁intrigue 262254
▁Play 262231
▁Way 262222
▁apparent 262040
br 262037
▁annoying 262009
65 261930
▁Five 261787
▁Pan 261739
▁OK 261703
to 261677
,3 261596
anh 261539
▁kệ 261473
▁Kể 261446
▁Mà 261417
▁160 261293
▁absolute 261283
▁tần 261276
▁hated 261220
▁Development 261216
,7 261080
AS 261059
▁lót 261040
▁AD 260947
▁headquarters 260870
▁mộng 260844
▁mayor 260780
ges 260749
▁beside 260734
▁Sĩ 260712
▁math 260697
▁goods 260674
▁nhắm 260623
▁expansion 260575
▁poorly 260512
▁invited 260494
▁Lots 260485
▁pounds 260423
▁Islam 260321
▁71 260288
▁thổi 260208
▁jack 260192
▁ôn 260173
▁Ten 260104
▁opportunities 259998
▁WASHINGTON 259984
▁Yêu 259972
de 259957
▁Tháp 259935
▁oldest 259800
35 259753
▁Er 259737
▁Alan 259693
eb 259673
▁Ross 259663
ba 259649
▁fixed 259647
▁lists 259502
lo 259494
▁Tín 259272
▁lăn 259255
▁motion 259229
▁má 259223
ened 259180
▁transferred 259178
▁dr 259110
▁traveling 259003
ked 258947
▁chanh 258914
▁bedroom 258911
▁suspected 258883
▁Đạt 258852
▁thorough 258841
▁occur 258800
oon 258761
▁independence 258709
▁Pal 258702
▁couples 258699
▁Iowa 258631
bs 258623
▁Death 258619
▁Services 258581
▁khơi 258572
▁Houston 258524
▁saving 258414
▁Carter 258295
▁devices 258275
▁khoăn 258270
AR 258267
▁cents 258237
▁Mah 258127
▁Harris 258110
vi 257905
▁mặn 257718
▁đành 257712
▁represents 257638
▁innocent 257596
▁dis 257592
▁beneath 257541
ark 257515
▁Âm 257446
▁bet 257386
▁analysts 257374
oph 257213
▁Global 257172
▁Province 257161
▁Trẻ 257157
iel 257098
▁phơi 257098
▁branch 257085
▁Bridge 257051
▁reflect 257047
▁Wh 256994
ern 256927
▁lộn 256802
▁manages 256758
▁commitment 256752
▁Quá 256567
ots 256506
▁chép 256431
▁1966 256430
▁publishing 256423
▁Clark 256289
▁ngào 256236
▁episodes 256171
und 256088
▁attraction 256053
▁lu 255991
▁gián 255985
▁females 255978
▁Đúng 255941
▁nose 255928
▁lật 255874
▁risks 255863
▁Moore 255829
68 255778
ato 255767
▁AM 255679
▁kiêm 255666
▁Lời 255199
▁explore 255147
▁ranked 255100
▁journalist 255089
▁châm 255019
▁banking 254959
▁profile 254953
▁Siêu 254925
/2011 254906
▁ồn 254895
▁sk 254862
▁DC 254828
▁controversial 254766
▁130 254723
▁comfort 254632
ability 254595
▁SH 254590
▁portrayed 254563
▁teaches 254413
▁shipping 254381
▁bible 254278
▁des 254265
ca 254259
▁ceremony 254253
▁scoring 254226
▁excitement 254145
▁lỡ 254097
▁quái 254054
▁Order 253957
▁sanh 253956
▁memoir 253801
▁transport 253608
▁Murray 253532
▁exact 253531
▁Cat 253358
▁battles 253321
▁97 253281
▁competed 253248
▁reveals 253118
gan 253109
▁subsequent 253049
▁pushing 252989
▁Susan 252923
ta 252887
▁papers 252820
▁festival 252715
▁informed 252706
▁Manhattan 252652
the 252635
▁horses 252585
▁outcome 252429
▁supplies 252406
▁households 252285
ji 252181
▁arguments 252067
▁journalists 251959
LL 251844
▁fail 251702
▁1963 251679
▁Diện 251589
▁pr 251573
▁roads 251541
▁learns 251528
▁gũi 251461
▁fi 251457
▁BS 251450
▁uncle 251436
▁seemingly 251410
▁lăng 251375
▁lifted 251373
99 251371
▁imp 251352
▁ret 251332
ira 251266
▁ngọc 251259
▁object 251232
▁necessarily 251070
▁colorful 251020
▁Creek 250961
▁bunch 250919
ET 250855
ott 250842
▁Centre 250814
▁customer 250790
▁Miami 250760
▁desk 250644
▁Sports 250639
▁Andy 250595
▁convicted 250586
AM 250531
▁ingredients 250435
▁tonight 250367
▁Carl 250328
▁dốc 250290
ification 250234
▁ngài 250230
▁chả 250222
▁Ex 250178
▁stared 250117
▁Môn 250105
▁Kon 249987
▁skill 249899
▁regularly 249853
▁Corps 249803
▁Đồ 249606
▁Trust 249474
▁Lang 249408
▁sand 249356
▁everywhere 249340
▁dồn 249292
▁meetings 249195
ited 249160
▁hãi 249117
▁Vegas 249027
▁lưỡng 248985
▁băn 248929
▁Ant 248916
▁maps 248907
▁obtained 248836
▁wins 248821
▁principal 248773
▁cai 248743
▁terror 248656
▁Bal 248636
ngày 248559
▁distribution 248519
▁sensitive 248291
▁Polish 248207
▁Governor 248205
▁silence 248203
ele 248202
▁trail 248161
▁disappointing 248123
▁hilarious 248053
▁Turkey 248022
ress 247893
▁staying 247825
▁NEW 247793
▁deck 247776
▁bird 247738
▁phế 247680
▁luck 247561
▁Oscar 247423
▁commonly 247420
▁grandmother 247410
▁protest 247288
▁nhan 247235
▁hụt 247227
▁Mag 247208
▁darkness 247159
▁shots 247153
of 247136
▁Jennifer 247100
▁tựu 247064
▁Chân 247057
▁reminds 246991
▁Station 246928
▁phổi 246899
▁micro 246876
▁Ros 246842
▁shoulders 246616
fer 246606
▁lõi 246577
▁~ 246572
▁Hiến 246534
▁lake 246529
que 246511
▁Dược 246450
▁Without 246441
▁lưỡi 246438
66 246437
ula 246369
ni 246309
▁trials 246304
▁1962 246270
▁khái 246193
▁impressive 246144
▁smooth 246042
▁Hamilton 245972
▁lung 245959
▁manh 245911
▁DNA 245855
▁Space 245845
▁Independent 245839
den 245802
▁attracted 245727
▁Chuyện 245717
▁narrow 245667
▁respond 245623
▁Cameron 245591
▁regions 245564
▁Xô 245546
▁Tác 245455
.0 245434
▁technique 245404
▁Minnesota 245400
▁promote 245363
▁charming 245299
▁gã 245223
▁cop 245141
▁Pre 245131
▁sum 245129
▁draws 245106
▁electronic 245009
▁Everyone 244966
▁municipality 244938
▁Jose 244748
▁CT 244733
▁approval 244729
▁luồng 244718
▁lam 244615
▁confident 244581
▁acid 244534
▁MU 244507
-11 244471
▁Bích 244456
▁programming 244317
▁na 244314
▁wealthy 244313
▁AC 244267
▁entitled 244239
▁paranormal 244206
▁xi 244176
▁Oct 244083
▁properties 244082
▁scary 244069
▁Could 244033
▁epic 244015
▁MS 243961
▁reporting 243954
▁lân 243947
ute 243941
▁guest 243827
▁chè 243763
▁murdered 243757
▁Got 243732
▁extent 243679
▁sen 243664
▁Project 243653
▁destroy 243615
▁dates 243609
▁abusive 243569
▁teenager 243533
▁association 243523
▁foods 243501
▁flights 243392
▁Pop 243366
▁random 243350
▁notable 243349
▁94 243346
ble 243319
▁Iranian 243171
ug 243080
▁Dùng 243071
▁dội 243034
▁heroes 242988
ova 242933
▁LOVE 242923
▁painful 242916
▁picking 242798
▁granddaughter 242787
▁ghost 242786
▁Kansas 242726
▁Mart 242639
▁accessible 242637
▁programme 242611
▁Defense 242547
▁Harvard 242514
▁Management 242512
▁disappointment 242474
▁Agency 242391
▁hở 242384
▁flash 242350
▁bế 242270
▁genus 242240
▁maximum 242211
▁MV 242112
▁List 242101
▁penalty 242090
▁suffer 242073
▁painted 241895
▁vacation 241880
▁kí 241833
▁extraordinary 241796
▁heading 241739
▁BOOK 241681
▁hiếu 241621
▁emerged 241526
ious 241503
▁sugar 241497
▁crossed 241447
▁Ac 241371
▁gaze 241337
ising 241277
▁mon 241230
▁Thùy 241149
▁iPad 241036
own 241011
▁mòn 240907
▁Bi 240807
▁trân 240782
▁replied 240763
▁Tường 240744
▁Treasury 240730
▁document 240713
▁hes 240687
▁Bao 240657
▁rộn 240588
▁Nhơn 240555
▁expand 240552
▁sounded 240523
▁vở 240512
▁commentary 240409
▁Angel 240390
▁Toronto 240390
▁Jo 240256
▁Chia 240239
▁Đan 240189
▁logo 240155
▁hoại 240150
▁moon 240081
▁cousin 240067
▁nights 240053
▁mood 240035
▁depression 240016
▁spoken 239969
▁mr 239963
▁Ver 239872
▁Energy 239869
▁bồn 239860
▁cốc 239858
▁exposed 239833
▁shed 239833
ified 239788
▁remote 239755
▁măng 239691
▁Administration 239680
▁Nhạc 239637
▁THCS 239624
▁Christopher 239601
▁mươi 239527
▁passes 239494
ID 239408
▁trains 239337
▁Chợ 239321
ational 239167
TV 239078
▁Alaska 239077
▁chiết 238873
▁impression 238873
▁height 238646
▁sudden 238628
▁Hunter 238548
▁bo 238528
con 238504
▁Capital 238290
urs 238282
▁devoted 238241
▁Perfect 238205
▁Bây 238198
▁Bur 238185
▁circle 238164
▁vợt 238155
▁350 238106
AP 238090
▁shaped 238072
▁encounter 237980
▁repeatedly 237951
▁corruption 237818
▁Unlike 237776
▁Add 237719
▁photography 237701
▁Oxford 237664
▁hò 237657
▁khôn 237617
back 237588
▁plots 237506
▁tia 237503
inh 237475
▁Huệ 237465
▁sn 237408
▁roughly 237349
▁Bel 237337
▁ups 237312
▁Maryland 237268
▁app 237226
▁êm 237102
▁pen 237075
▁Wright 237053
▁Viettel 237042
▁resort 236981
▁warming 236885
▁colleagues 236822
▁coloring 236788
▁Chắc 236714
▁vặt 236703
▁Marine 236669
ures 236544
▁producing 236376
▁vampires 236328
▁tem 236288
▁arrival 236272
▁assault 236217
▁Never 236191
▁dạo 236107
▁81 236057
▁phe 236055
▁dời 236007
▁Luke 235987
▁Library 235964
▁properly 235849
▁pocket 235750
▁terrorist 235746
▁YouTube 235696
sp 235661
▁Again 235654
ater 235606
▁shall 235590
▁lawyers 235584
▁relative 235568
▁Jong 235541
▁Ber 235520
▁Toán 235399
▁volumes 235354
▁occasionally 235310
▁Winter 235247
▁quotes 235221
▁Tp 235217
▁ethnic 235171
▁origin 235171
▁hiding 235016
ima 234887
han 234851
▁significantly 234847
▁Tỷ 234794
▁shoot 234701
▁Messi 234696
▁rolled 234632
ively 234631
▁Point 234500
▁CR 234490
75 234378
▁Nice 234329
▁Đôi 234301
ged 234286
▁đùa 234272
Ư 234205
▁mate 234200
▁narrator 234133
▁Nơi 234120
▁Dean 234118
▁Cap 234108
▁Sar 234099
▁ministry 234064
▁1944 234038
ati 233864
aj 233850
▁limits 233838
▁chẩn 233812
▁Des 233802
▁reviewer 233794
▁calm 233777
▁Mount 233765
▁sentences 233750
▁surprises 233713
▁Tuyết 233685
▁Senator 233660
Ch 233626
▁tip 233619
▁formerly 233605
▁nâu 233451
▁shocked 233439
aya 233388
▁Anyone 233382
▁nhở 233380
▁Mức 233261
▁thoảng 233236
▁Cole 233173
ali 233135
▁ease 233119
▁links 233095
▁Take 232966
▁destruction 232927
▁invasion 232892
▁wheel 232867
▁Lục 232812
▁establish 232799
▁administrative 232677
▁Grant 232634
▁Quả 232524
ông 232453
▁doll 232330
▁commission 232327
▁edited 232230
▁purposes 232117
▁sướng 232099
▁Palestinian 232063
▁toys 232047
▁males 231995
▁Bishop 231952
▁affairs 231943
▁occupied 231791
,1 231781
IA 231712
▁Mourinho 231676
▁performing 231597
▁fraud 231572
▁sin 231572
▁tragic 231531
▁bôi 231452
▁motor 231435
▁psychological 231383
▁tower 231364
▁registered 231318
▁Atlanta 231312
▁suppose 231312
▁ghé 231223
▁Gh 231205
▁witness 231165
▁deserves 231152
▁App 231126
▁Str 231093
▁firms 231079
▁satisfied 231077
▁Bought 231032
▁squad 230994
▁affair 230975
▁Potter 230888
ades 230886
▁ed 230808
▁creatures 230805
▁weapon 230742
▁landscape 230691
▁Phân 230680
▁Alice 230665
ret 230566
ust 230480
▁readable 230443
▁Ocean 230384
▁flag 230351
▁Does 230346
▁participated 230336
▁Điền 230294
▁Stars 230223
▁Wars 230165
▁partners 230050
▁assistance 230013
▁caring 229950
ond 229907
▁et 229830
▁Dream 229790
▁Pope 229596
▁argue 229560
▁Dallas 229537
▁draft 229522
▁Emma 229515
▁respectively 229464
▁influenced 229381
▁Rachel 229332
▁Nazi 229146
▁chém 229097
000 229046
▁negotiations 228991
▁Đàm 228974
▁essentially 228973
▁hers 228782
▁Kiếm 228743
▁prize 228736
▁container 228675
▁nạ 228635
▁surely 228595
▁Woods 228579
▁encouraged 228573
▁contest 228483
▁Kr 228480
aki 228477
▁Bố 228456
ander 228282
▁rail 228269
▁lit 228205
▁visitors 228187
atic 228182
▁Father 228081
▁logic 228052
▁ultimate 227924
▁Trắng 227872
CC 227854
▁passenger 227797
▁TN 227772
▁surrounded 227750
▁Đêm 227711
burg 227561
▁Test 227514
▁Thus 227509
ique 227489
▁silent 227489
▁suggestions 227487
▁Mountain 227456
▁Hang 227406
▁assumed 227404
ave 227295
▁hiền 227286
ole 227267
▁sofa 227235
▁Indiana 227179
▁125 227142
▁rep 227140
▁illustrated 227055
▁bonus 227037
▁1900 226976
▁Sri 226854
ison 226821
▁tomorrow 226741
▁Jon 226734
▁thirty 226707
▁intellectual 226699
▁Francis 226624
▁writings 226533
▁điên 226508
▁gender 226499
▁shoes 226434
,9 226393
▁massage 226386
▁kề 226219
▁Ro 226199
▁Rick 226163
▁advertisements 226162
▁Ian 226133
▁Cá 226124
▁ngự 226070
▁tear 226060
▁dưa 226052
▁collapse 226036
▁trơn 226026
OS 226009
▁wet 225990
▁zero 225950
▁grandfather 225883
▁McC 225774
▁gray 225746
▁khép 225722
▁Which 225705
▁Phía 225683
▁Mass 225607
go 225576
▁companion 225535
▁enforcement 225409
▁poet 225355
▁pressed 225355
▁trâu 225355
TC 225261
▁express 225172
▁performances 225010
▁desperate 225006
▁operate 224926
▁scared 224855
▁lunch 224838
▁Baghdad 224812
▁Born 224774
▁NN 224673
▁documentary 224649
▁tons 224597
▁wise 224561
▁conduct 224559
▁rated 224559
ook 224526
▁mis 224521
▁Roberts 224466
▁Vol 224370
▁HĐQT 224328
▁Country 224311
▁Nothing 224277
lan 224236
▁140 224232
▁parliament 224218
▁Save 224188
pe 224170
▁peak 224157
▁entrance 224039
▁Barca 224032
▁employed 224024
▁FPT 224006
▁fewer 223983
▁seller 223979
▁voting 223877
▁hoài 223851
▁Parker 223847
▁hadn 223831
▁Airport 223797
▁sương 223763
▁NFL 223700
▁humorous 223681
▁medium 223681
▁afford 223658
▁succeeded 223631
▁180 223499
▁explanations 223457
head 223434
▁quạt 223357
▁disappeared 223341
▁directions 223272
▁tested 223254
▁lường 223226
▁burned 223181
▁MT 223128
▁viewing 223115
▁Quán 223087
▁hận 223066
▁atmosphere 223054
▁Viet 222999
▁Reserve 222986
▁ideal 222986
▁Thompson 222933
▁Kal 222903
▁1961 222835
▁dozens 222790
▁Swiss 222780
▁singing 222761
▁retail 222759
ui 222737
▁Dave 222712
▁Khan 222689
▁compete 222682
▁Amy 222612
▁mountains 222607
▁Guide 222599
▁vỉa 222595
ven 222469
▁Dead 222409
▁Word 222340
▁string 222283
▁profanity 222276
▁involvement 222254
▁militants 222233
▁Seattle 222187
▁Early 222145
▁Hart 222103
▁voices 222103
▁royal 222042
▁occasional 221952
▁intrigued 221911
▁phase 221905
▁lifetime 221818
▁Fair 221798
▁Between 221716
▁democracy 221671
▁Technology 221571
▁tongue 221561
▁wo 221457
▁Orleans 221331
▁Theatre 221301
▁locked 221293
▁Bạc 221265
▁actors 221242
▁Comments 221239
▁Wild 221206
▁Gary 221083
▁puzzle 221069
▁tank 220974
▁theater 220912
▁containing 220796
▁recognition 220786
▁preparing 220784
▁silly 220778
▁Democrat 220723
▁Silver 220713
▁divorce 220692
▁10.000 220665
▁gen 220654
▁assume 220648
▁Head 220644
▁Cứ 220617
min 220540
▁manual 220517
Index 220482
▁Definitely 220443
▁ongoing 220443
▁Phùng 220373
▁quest 220303
▁ton 220292
▁emotionally 220276
▁lacking 220230
▁regardless 220157
▁comparison 220154
▁1959 220140
▁witty 220127
▁Rio 220068
▁Band 220059
▁Philip 220040
▁rear 220031
▁flowers 220005
▁sam 220005
▁Child 219988
▁Channel 219976
▁joining 219932
▁twin 219910
▁generations 219903
▁Ron 219818
▁protected 219791
▁Bảng 219733
▁beating 219726
▁connections 219694
▁Phủ 219634
26 219633
▁900 219605
▁Matthew 219603
▁Content 219589
▁Cook 219553
▁cự 219438
▁delicious 219400
▁System 219391
▁Ok 219390
▁Age 219353
▁Ngôi 219326
▁1948 219321
▁gathered 219290
▁Bon 219287
▁côn 219222
etic 219165
▁unfortunately 219118
▁percentage 219071
stone 219003
▁Ive 218983
▁coal 218965
▁deputy 218788
▁concluded 218783
▁đắn 218764
▁vạch 218734
▁craft 218701
▁opera 218698
▁mí 218672
▁personalities 218642
▁Mộc 218597
bed 218549
▁Mat 218533
▁serial 218504
▁stake 218490
▁factory 218485
33 218441
EC 218420
▁ocean 218407
▁1954 218298
▁ar 218297
▁Roger 218169
▁transition 218169
▁Tuổi 218150
▁dated 218144
▁Marie 217927
▁buông 217869
▁mill 217861
▁flows 217840
▁clothing 217665
▁suối 217626
/2010 217616
▁regime 217548
▁gãy 217540
▁personnel 217425
▁mò 217400
▁Revolution 217372
▁thưa 217361
▁wonderfully 217301
▁amid 217230
isation 217210
▁favourite 217186
▁root 217030
▁objects 217023
▁Food 216988
▁Đàn 216934
ij 216759
▁LED 216746
▁ớt 216699
▁indicated 216686
▁racial 216682
▁Triển 216655
OM 216595
▁prisoners 216585
▁Sóc 216580
bury 216566
▁hosted 216556
▁xá 216481
▁demands 216376
ito 216359
che 216355
▁captivating 216352
▁und 216335
▁Ô 216321
▁Nguyệt 216317
▁Av 216311
ony 216294
▁nghiêng 216271
▁Win 216201
▁FA 216194
▁Med 216177
▁awareness 216148
fully 216126
▁instant 216113
▁min 216079
elling 215991
▁client 215968
▁rank 215945
ail 215940
▁switch 215936
▁ngoan 215910
▁twelve 215834
och 215774
▁discussions 215763
▁Kl 215757
▁chuối 215721
▁von 215712
▁marks 215697
▁strategies 215694
▁Fun 215692
▁guidance 215530
▁fairy 215422
▁Hal 215421
▁170 215419
oring 215380
▁trùm 215354
▁reporter 215336
▁vách 215333
ela 215325
▁architecture 215279
▁mutual 215264
▁Ever 215251
▁nominated 215192
med 215128
pl 215076
▁1942 215012
Th 214987
▁paintings 214967
▁1941 214860
▁giọt 214823
▁1956 214794
▁smell 214785
▁Right 214713
▁jury 214646
▁1958 214641
▁Steven 214557
▁arrive 214550
▁Tennessee 214507
▁walks 214490
-19 214479
▁resistance 214462
▁highway 214431
▁flew 214347
▁kẹt 214282
▁courses 214234
▁Gates 214189
▁Rights 214171
▁castle 214128
▁Stadium 214073
▁Secret 214061
▁worker 214050
▁khoai 214049
▁Sy 214048
▁bored 214043
ran 214019
▁membership 213995
▁hip 213954
▁đứt 213900
▁Ball 213865
▁protests 213801
▁replacement 213726
▁Sand 213601
▁lùng 213577
▁definition 213571
▁median 213570
▁schedule 213568
▁quit 213542
▁vulnerable 213448
▁Cu 213436
▁chậu 213423
▁Shop 213414
▁Tuần 213379
▁terrorism 213360
▁tuyết 213351
▁Hoặc 213263
▁concrete 213247
▁refers 213247
▁difficulty 213224
▁lộc 213196
▁es 213184
▁grounds 213122
▁1946 213106
▁Sept 213095
▁oxy 213085
▁khoảnh 213056
act 213011
▁visa 212958
▁blind 212946
▁Đánh 212922
▁Railway 212810
▁Mer 212804
▁unemployment 212769
▁Oregon 212705
▁dở 212684
▁artwork 212656
▁roots 212637
▁wars 212633
▁consecutive 212624
▁lặp 212539
uch 212524
▁cua 212408
ign 212323
▁script 212313
ological 212311
▁crack 212228
▁ticket 212226
ode 212206
▁representing 212158
▁trắc 212110
▁id 212081
▁Euro 212063
▁exam 212063
▁burning 212047
▁queen 212019
▁bội 211974
▁harm 211820
▁Sub 211813
▁passage 211787
▁phanh 211784
ika 211763
▁gripping 211757
▁publicly 211754
▁léo 211702
▁Engagement 211632
▁thoughtful 211615
▁shelf 211603
▁Swedish 211598
▁Jonathan 211587
▁Lisa 211537
▁ướt 211494
▁hearts 211473
▁ID 211402
▁stretch 211393
▁beer 211382
▁hunting 211342
▁involves 211329
55 211312
▁PGS 211292
▁Greece 211260
▁@ 211215
▁Field 211214
▁stream 211210
▁Exchange 211182
▁designer 211155
▁Trans 211139
▁hái 211009
▁Hitler 210989
▁BĐS 210959
▁automatically 210940
▁Terry 210885
▁lắc 210858
▁fabulous 210738
▁Mô 210714
▁cạn 210673
▁Square 210646
▁seventh 210624
▁summit 210596
▁anniversary 210595
▁Subscribe 210583
▁smoke 210552
▁Vin 210534
ros 210522
▁whispered 210509
▁responded 210484
▁Trả 210418
▁cycle 210383
▁nám 210338
▁blocks 210332
▁xà 210292
amp 210155
▁churches 210134
▁dirty 210133
▁dust 210118
▁tail 210086
ises 210057
▁Bruce 209948
▁Ste 209928
▁Six 209917
▁wished 209851
▁BKS 209850
▁lề 209847
▁com 209820
▁Stanley 209697
▁ridiculous 209695
▁wore 209692
any 209672
▁stages 209623
▁Nelson 209622
▁hòn 209575
▁rapidly 209526
oz 209522
▁NHNN 209409
28 209367
▁landing 209233
▁executives 209201
▁ARC 209179
▁gác 209174
▁Ha 209121
▁dệt 209104
▁Whether 209061
▁pulls 209058
▁charts 209054
▁vĩnh 209045
▁Phiên 209025
▁Gulf 209004
▁Mas 208981
▁vóc 208945
▁enemies 208930
▁Tai 208876
▁Prize 208856
OT 208842
ST 208758
ux 208737
▁USB 208669
▁disc 208608
▁Castle 208603
▁Highly 208586
▁sạt 208570
▁failing 208510
▁Interesting 208508
-12 208485
▁announcement 208476
▁entering 208474
▁quát 208421
▁rỉ 208412
▁increases 208313
▁priest 208301
▁Dick 208288
▁Judge 208285
▁confusion 208282
ek 208245
▁chances 208211
▁vú 208157
gr 208141
▁worlds 208074
▁genius 208051
▁theories 207987
▁Find 207978
▁Spirit 207939
▁1939 207916
▁gorgeous 207835
▁purchasing 207826
▁recall 207818
▁Graham 207757
▁Watch 207747
▁temporary 207731
ologist 207718
▁glanced 207707
▁harsh 207671
▁cafe 207569
▁qui 207564
▁Bowl 207535
EL 207472
▁inches 207465
▁battery 207405
▁dãy 207392
▁đằng 207379
▁Douglas 207377
▁đụng 207369
▁spokeswoman 207245
acy 207239
CS 207237
▁PH 207205
▁shame 207169
▁Has 207113
▁approached 206988
▁Tower 206961
▁weekly 206946
▁nan 206937
▁nương 206921
▁reasonable 206899
▁fruit 206888
▁HP 206874
▁starring 206845
▁sci 206841
▁gắt 206783
▁alike 206679
▁ignored 206652
▁travels 206644
48 206592
▁temple 206589
▁awful 206538
▁Robinson 206514
▁spell 206498
▁BC 206479
| 206407
▁dressed 206406
▁happily 206384
▁twisted 206371
▁investing 206362
▁preventing 206358
38 206336
▁hill 206320
▁crying 206293
▁FOR 206262
▁regard 206258
▁Use 206127
▁bills 206116
▁crucial 206085
▁equivalent 206084
27 206060
▁bother 206011
▁dealt 205981
▁gam 205967
▁tech 205956
▁degrees 205930
▁instantly 205920
▁glimpse 205835
▁Walker 205798
▁voi 205769
▁Wal 205764
▁mèo 205743
▁nắp 205723
▁tap 205712
▁Hi 205708
▁Wisconsin 205688
▁sample 205670
▁classical 205664
▁preferred 205655
rie 205573
▁mắm 205571
▁traveled 205539
▁1957 205415
▁gom 205414
▁wooden 205404
▁Doctor 205316
▁designated 205305
▁nho 205292
▁ngột 205281
ards 205183
▁chặng 205180
aid 205171
▁grows 205150
board 205111
▁suspects 205109
▁pink 205102
▁villages 205091
▁Vợ 205034
▁qualified 205028
▁Stewart 205015
▁dỡ 205009
▁cited 204999
▁Trận 204996
▁courts 204996
▁Community 204968
ero 204961
▁Chú 204896
▁maintained 204866
▁Walter 204854
▁Khê 204845
▁sập 204829
▁1947 204798
▁Az 204792
▁separated 204714
▁Fe 204712
▁luân 204650
▁electricity 204639
▁Gal 204628
▁trăng 204583
▁Cậu 204579
▁Venezuela 204554
▁NBC 204538
▁NASA 204500
▁cược 204454
▁Sweden 204412
▁fishing 204352
ila 204346
▁competitive 204288
▁Qaeda 204270
▁Islands 204198
▁claiming 204139
▁2.000 204126
▁concise 204064
▁backing 203994
▁Com 203979
▁junior 203929
▁Blood 203859
▁therapy 203854
▁mộc 203802
▁veteran 203802
▁civilian 203793
▁structures 203753
▁functions 203723
▁Albert 203710
▁nứt 203670
▁revenge 203666
▁signal 203616
▁tê 203595
▁Palin 203571
▁Seoul 203513
▁lowest 203495
▁đới 203462
▁AN 203451
▁besides 203407
▁MTV 203350
▁Native 203343
▁urged 203326
▁sụt 203223
▁boost 203216
▁Phường 203214
ori 203147
ote 203104
▁đọng 203067
▁Cooper 203057
▁lands 203043
▁waters 203021
▁Muốn 203018
▁suspenseful 203000
▁eager 202981
▁listened 202978
▁guilt 202923
▁hitting 202908
▁overview 202902
▁Colombia 202898
▁drivers 202869
▁poem 202826
▁promotion 202761
▁Main 202752
▁distinct 202735
▁representative 202733
▁sleeping 202708
▁Bé 202647
▁updated 202639
▁profound 202567
▁shadow 202548
▁Adams 202522
▁pitch 202508
▁treasure 202478
▁dối 202458
▁potentially 202418
EM 202402
▁manufacturing 202368
▁dũng 202343
USD 202318
▁Jake 202306
▁à 202275
sen 202108
aph 202101
▁Mobile 202020
over 201903
▁interior 201864
▁restaurants 201843
▁rush 201824
▁SEA 201813
uth 201801
▁existed 201798
▁Jerusalem 201771
▁centers 201716
▁Class 201715
▁Until 201698
▁torn 201680
▁tennis 201666
▁agenda 201658
▁Sỹ 201656
▁giàn 201638
▁BHYT 201619
▁versus 201561
▁improvement 201537
mar 201516
▁leaned 201454
▁albums 201369
▁descriptive 201347
▁aim 201330
▁trick 201283
▁dig 201274
▁Should 201270
▁genuine 201268
▁occurs 201260
▁gu 201246
da 201238
▁Neither 201221
▁Cửu 201203
▁singles 201197
ils 201070
▁everybody 200937
▁tùng 200913
ii 200904
▁Barbara 200871
▁Ol 200843
▁Trade 200814
▁1943 200761
▁Bu 200751
▁Missouri 200719
▁ben 200619
▁gap 200467
iro 200436
▁parish 200427
▁lap 200420
▁hao 200418
▁Fast 200402
▁Third 200380
▁Palace 200361
iers 200353
▁rao 200343
▁Il 200320
▁revolution 200313
▁Khai 200242
▁tám 200228
▁Vice 200227
▁Sáu 200132
▁ráp 200132
▁bu 200109
▁grateful 200087
▁healthcare 200085
▁rắc 200052
▁coalition 200044
▁beginner 200024
rit 200019
ances 200018
▁persons 199983
▁dull 199973
▁terrific 199964
▁suspended 199931
▁cu 199883
▁frustrated 199875
▁91 199856
▁Thích 199806
▁cable 199805
▁encouraging 199782
▁Down 199772
▁spots 199718
▁tao 199656
▁auto 199616
▁Comp 199558
▁reserved 199554
▁Ak 199498
▁1955 199496
illa 199495
▁Things 199470
▁CO 199390
▁arranged 199378
▁formation 199336
ear 199333
▁Lại 199326
▁Sign 199297
▁demons 199286
▁minimum 199254
▁Cấp 199253
League 199248
▁Tông 199227
▁VFF 199215
osa 199205
▁Set 199142
▁exists 199137
▁Pet 199117
▁troubled 199048
▁Laura 198962
▁cóc 198961
▁Nor 198932
▁computers 198925
▁texts 198916
▁complaints 198908
▁Brothers 198844
▁Arabia 198814
▁ren 198776
vers 198741
▁Thẩm 198712
▁lab 198688
▁supernatural 198666
▁ùn 198622
▁xích 198547
▁abilities 198542
▁burn 198517
▁partly 198509
aus 198493
▁Ni 198434
▁attempting 198313
▁brave 198271
▁Forest 198270
▁rape 198237
▁relatives 198227
▁Giáp 198214
▁abroad 198206
▁renamed 198203
▁quãng 198202
▁defend 198180
▁noise 198179
▁ALL 198177
▁networks 198131
▁tràng 198116
▁Chúc 198092
▁Mother 198048
▁Edwards 198025
▁inflation 197985
▁Warren 197983
▁hiếp 197983
ND 197972
▁historian 197937
▁fits 197861
▁fr 197839
▁Along 197835
▁SS 197816
▁authentic 197802
▁regarded 197792
ga 197769
akes 197766
▁q 197763
▁gai 197760
▁insisted 197489
▁landed 197447
▁sword 197443
▁Bre 197436
▁Turkish 197394
▁criticized 197344
▁họng 197324
ition 197273
▁profits 197205
▁Sean 197160
▁riding 197067
▁balls 197011
▁nephew 196920
▁chánh 196869
▁emphasis 196864
▁ngô 196851
▁WWII 196822
▁lũy 196819
▁fiscal 196785
▁lụt 196718
▁Hell 196685
▁charity 196683
▁Duyên 196619
▁allies 196536
▁Entertainment 196530
bo 196527
▁payments 196510
▁districts 196503
▁overly 196483
ular 196479
▁attractive 196479
▁consistent 196460
▁cabin 196382
/1 196339
▁YA 196338
▁transmission 196318
▁bits 196281
▁Ứng 196255
▁guards 196201
▁Khang 196190
▁Off 196148
▁Antonio 196117
▁LA 196106
▁handled 196089
▁acted 196064
▁Lạp 196041
▁checked 196041
▁ap 196022
▁nobody 196003
▁Phố 195982
ơ 195899
▁Hawaii 195890
▁delivers 195831
▁holes 195807
▁Dòng 195748
erson 195740
▁Mang 195692
ili 195554
▁Call 195552
ify 195494
▁Pen 195455
▁correctly 195429
ingly 195425
book 195417
▁textbook 195396
▁Cambridge 195388
▁sáp 195375
▁xen 195307
▁column 195279
▁lift 195275
▁Cố 195263
▁pursue 195255
▁drawings 195170
▁invested 195169
▁diverse 195164
▁bấy 195160
▁VI 195146
▁mothers 195070
oma 195061
▁classroom 195046
ns 195037
▁grief 195036
▁Peace 195019
▁Nancy 194968
▁Xanh 194960
▁YOU 194855
▁overseas 194779
▁golden 194712
▁xô 194686
▁bin 194622
▁emissions 194467
▁Dubai 194452
▁threatening 194360
▁Dar 194335
▁Met 194302
▁engage 194296
▁QL 194209
▁parallel 194200
▁Jacob 194170
▁Brooklyn 194160
▁theatre 194127
▁knee 194069
▁Viết 194068
oi 193990
▁partnership 193932
▁carries 193893
▁Thất 193830
nt 193750
▁meal 193740
▁discovers 193687
▁Dragon 193642
▁axit 193610
▁immigrants 193600
▁nomination 193597
▁radical 193591
work 193572
▁viewed 193566
▁kỉ 193532
▁throwing 193502
▁PCCC 193465
46 193451
▁succeed 193408
▁Bách 193387
bl 193371
▁Executive 193254
CT 193214
▁Emily 193214
▁accompanied 193208
▁symbol 193181
▁requirements 193176
▁Marc 193113
▁settle 193111
▁essays 193094
▁temperature 193079
▁mature 193064
atory 193057
▁Campbell 192993
▁venture 192993
▁sm 192991
▁hoành 192988
▁ray 192978
ime 192930
▁Mil 192907
▁rồng 192893
▁phẳng 192864
▁kiệt 192818
▁1953 192777
▁Màu 192750
▁fore 192692
▁bands 192670
oss 192621
ace 192577
▁steam 192559
▁dải 192550
▁virtually 192526
▁Charlotte 192523
▁pot 192516
▁interactive 192512
▁breast 192460
▁xay 192416
elli 192312
▁grasp 192311
▁collect 192256
eg 192239
▁ốm 192226
▁telephone 192222
NH 192216
▁gentle 192213
▁establishment 192197
▁Băng 192196
▁concerning 192094
▁inf 192067
▁fails 192066
▁dominated 192062
▁Haiti 192060
▁Netherlands 191993
▁Pakistani 191974
▁importantly 191782
▁stable 191780
ball 191721
▁contributions 191696
▁Mill 191685
▁deadly 191674
aka 191609
▁Juan 191606
▁Nhung 191583
▁stolen 191500
▁finals 191489
▁summary 191455
▁Him 191432
▁depending 191371
▁inc 191346
▁AFP 191316
PT 191268
▁scientist 191144
▁shes 191133
▁employee 191115
▁1949 191081
▁founding 191079
▁processes 191030
▁physics 191026
▁reminder 191009
▁Thuế 191002
▁Russell 190970
▁Gaza 190958
▁NO 190958
▁cám 190949
▁focusing 190935
▁cắn 190897
▁trend 190882
▁findings 190865
▁đê 190823
▁radar 190811
▁Kentucky 190794
▁lawmakers 190786
▁nhức 190773
▁substantial 190760
▁edit 190748
47 190706
▁chén 190637
▁parking 190572
▁xưng 190549
▁Cảng 190542
29 190529
▁vành 190482
▁fake 190481
▁ac 190460
▁Ren 190406
▁update 190405
▁managing 190296
▁Billy 190285
▁Knight 190254
▁shouldn 190224
▁owns 190178
ood 190171
▁stops 190097
▁đòn 190081
▁teenagers 190079
▁platforms 190021
79 190011
▁deserve 189997
▁guests 189996
▁mu 189973
▁Ward 189966
▁robot 189941
▁clock 189940
▁converted 189879
▁gifted 189872
▁Bh 189855
▁Vạn 189844
AD 189834
▁Building 189831
▁shake 189825
▁Look 189821
▁Robin 189762
▁confirm 189626
▁FIFA 189560
▁Id 189512
▁mau 189346
▁thịnh 189333
▁Fund 189308
▁grammar 189268
▁desert 189205
▁challenged 189135
▁ignore 189110
▁True 189104
wa 189005
▁steady 188984
▁interaction 188953
▁Princess 188934
IM 188914
▁Vô 188907
ues 188884
▁Lawrence 188882
▁plate 188864
▁repeat 188847
▁er 188817
▁civilians 188735
▁Miền 188718
▁1952 188697
▁addressed 188636
ved 188633
ined 188626
▁flaws 188588
▁Guard 188578
▁Rev 188574
ently 188567
▁disturbing 188456
aps 188438
▁Sân 188400
▁ghét 188380
▁alien 188379
▁Fred 188335
▁Kent 188329
▁delayed 188310
ille 188298
▁introduce 188249
▁visits 188224
anna 188222
▁vital 188170
▁Search 188168
▁tape 188152
▁engineer 188146
▁judges 188096
▁bướm 188028
▁sing 187998
▁FM 187966
▁memorable 187962
▁absence 187952
▁Wayne 187936
▁BTC 187920
▁folk 187875
ush 187862
▁cream 187824
▁Mayor 187744
▁earnings 187682
▁savings 187648
▁tivi 187630
gg 187610
▁kiềm 187551
▁xăm 187531
▁thrilled 187494
▁sâm 187484
▁quietly 187464
▁Margaret 187405
▁VTV 187375
ante 187341
▁overwhelming 187225
▁passages 187211
com 187180
▁heritage 187176
▁jazz 187145
▁hoãn 187107
ston 187081
▁cultures 187016
▁CNTT 187012
▁observed 187007
▁cởi 186995
▁Chile 186988
aries 186966
▁movements 186964
▁investigate 186919
▁phiến 186896
▁beings 186857
▁strategic 186853
▁rẽ 186815
▁lặn 186780
▁ào 186739
▁Highway 186678
▁substance 186645
▁sentenced 186574
▁Ga 186547
rop 186475
▁translated 186469
ml 186465
▁hey 186465
nes 186457
▁lui 186414
▁Khắc 186400
▁grass 186363
▁fees 186306
▁Final 186280
▁facebook 186249
▁Program 186208
▁dại 186185
▁Keep 186177
ral 186164
▁nhược 186070
▁Wolf 186037
▁Đảo 186014
▁threats 186003
▁torture 185983
▁giang 185919
▁Muslims 185847
ries 185826
▁superb 185777
▁Chairman 185739
▁Lăng 185734
ality 185719
▁periods 185705
▁phrase 185671
▁súc 185651
▁targets 185624
▁recipient 185610
▁Trì 185601
▁grey 185598
▁downtown 185512
▁Vật 185502
▁knife 185453
▁hố 185421
▁Bỉ 185391
▁determination 185356
▁exhibition 185267
▁Cape 185216
▁wolf 185204
▁hopefully 185199
▁difficulties 185162
▁equity 185161
▁quyển 185158
▁basics 185156
▁Michelle 185126
49 185104
▁Bureau 185100
▁Hoạt 185095
▁demanded 185071
▁rét 185071
▁YORK 185065
▁Sel 185057
▁úy 185057
▁license 185024
▁Louisiana 185020
▁lock 185013
▁AL 184948
▁scholars 184926
▁grant 184900
▁convince 184892
gi 184879
▁biblical 184794
▁Nhưỡng 184753
▁aunt 184749
▁LG 184740
▁Gò 184726
▁milk 184715
▁referring 184660
▁wings 184549
▁Kat 184514
▁Os 184478
▁shit 184472
▁captures 184467
▁bread 184452
▁Ap 184440
▁artistic 184437
▁ngần 184432
▁Sn 184426
▁Nokia 184371
▁Victor 184369
▁frequent 184305
▁addresses 184279
▁crafted 184277
▁tưới 184260
▁rang 184254
▁Austin 184161
▁Jimmy 184152
▁Roy 184152
▁ngưng 184131
▁contents 184096
▁Brad 184073
▁320 183961
▁ròng 183941
▁calendar 183932
▁chê 183895
▁Rich 183886
▁solar 183874
▁Năng 183858
▁allegedly 183794
▁oan 183788
▁farmers 183755
▁dồi 183671
▁Bangkok 183562
ped 183543
▁chap 183527
▁Buổi 183522
▁dispute 183518
▁Switzerland 183489
▁demon 183373
▁opponents 183361
▁cuồng 183306
▁styles 183281
▁Char 183274
▁Gov 183248
▁Modern 183216
▁101 183172
▁đạc 183139
▁Biết 183136
▁promises 183127
ct 183120
▁sẹo 183086
▁earn 183075
▁binding 183056
▁extension 183048
▁picks 182997
▁Czech 182970
▁Yahoo 182966
▁chocolate 182896
▁minority 182874
▁buồng 182841
▁button 182838
▁Sách 182805
▁fleet 182789
anda 182726
▁delight 182714
▁Tehran 182702
▁Key 182699
▁Diệu 182697
▁nghịch 182696
▁ưng 182629
▁nervous 182622
▁Ay 182561
▁Lane 182534
▁Justin 182514
▁rủ 182487
▁escaped 182457
▁symptoms 182453
▁monster 182436
▁worship 182430
▁seed 182429
ains 182406
▁Greg 182378
▁conspiracy 182359
▁staring 182321
▁Vy 182259
▁praise 182207
CA 182203
ales 182158
▁tỏi 182155
▁Hungary 182147
▁intent 182021
▁participants 182021
▁Mir 181986
▁dismissed 181971
▁Vladimir 181957
▁Mars 181936
▁chemical 181904
▁Alabama 181865
ister 181860
▁chôn 181838
▁óc 181801
▁breathing 181790
▁sequence 181779
▁rally 181778
▁employment 181763
▁mode 181730
▁interpretation 181720
▁Kings 181703
▁drag 181691
▁Ăn 181683
▁resigned 181645
▁cúm 181641
▁Cleveland 181637
▁Hel 181631
▁Warner 181591
ming 181587
▁chuông 181561
▁architect 181556
▁contribution 181553
▁dragon 181484
▁handling 181459
▁Mercedes 181456
▁underground 181455
▁ladies 181448
▁missile 181444
▁Cương 181436
▁Trăng 181399
▁Military 181366
▁Đèn 181360
ello 181342
▁Tạo 181293
▁psychology 181252
iff 181208
▁pan 181156
▁compare 181147
▁babies 181145
▁arch 181143
▁amounts 181141
▁knock 181139
▁allegations 181100
▁stadium 181096
▁Julia 181072
▁wit 181070
ih 181068
▁Mississippi 181048
▁rụng 181045
▁Tùy 181042
▁forcing 180996
BA 180984
▁installed 180964
▁odds 180929
▁PS 180913
▁questioned 180890
▁kiều 180830
▁Perry 180796
▁trips 180731
▁imagined 180729
iting 180718
▁beloved 180717
▁investigating 180715
▁pleasant 180698
▁Thuốc 180647
▁flesh 180577
US 180497
▁thám 180491
▁mirror 180477
ree 180425
▁survivors 180420
▁chay 180400
▁density 180386
onic 180364
▁xao 180353
▁Liêu 180335
▁popularity 180335
▁voluntarily 180316
▁immigration 180303
▁Vua 180259
▁paperback 180233
▁trans 180232
▁dẹp 180231
▁widespread 180193
▁Tranh 180183
▁thiêng 180102
.10 180039
36 180033
▁lội 180029
▁ge 180013
▁anybody 180005
▁cọc 179972
▁salt 179965
▁AR 179881
▁Ill 179873
use 179842
▁considerable 179838
▁Hán 179816
▁Samuel 179796
▁Work 179790
▁fled 179786
▁Standard 179769
▁ranks 179758
▁subtle 179758
▁Ki 179729
▁physically 179722
▁xót 179720
ives 179715
une 179600
▁tớ 179526
▁Lạng 179487
▁Sport 179415
▁winners 179364
39 179299
▁dai 179299
▁brutal 179291
▁Rad 179275
▁recovered 179273
▁rolling 179235
▁camps 179222
port 179213
▁crossing 179180
▁Italia 179169
▁alert 179162
▁Design 179156
▁professionals 179097
▁Seven 179072
▁deficit 179072
▁Tor 179000
oid 178972
▁defensive 178908
▁bàng 178905
▁bọ 178868
▁differently 178867
▁cành 178866
▁Buy 178802
▁hunt 178798
▁neighbors 178795
▁Bảy 178793
▁shorter 178792
▁executed 178745
aged 178740
ull 178739
▁SV 178720
ging 178699
▁controversy 178696
▁emerging 178695
▁intention 178682
▁slave 178672
▁Kỷ 178648
▁nốt 178604
▁chật 178557
▁mài 178546
▁tickets 178509
▁Craig 178508
▁sal 178498
▁whenever 178479
▁cleared 178472
▁Trưng 178471
▁barrel 178461
▁bong 178455
▁der 178435
▁Khối 178420
▁Nhiệt 178414
▁spite 178398
▁đun 178389
▁behalf 178242
▁Gil 178227
▁Phoenix 178225
my 178210
▁bass 178207
▁Rice 178089
▁dear 178085
▁acknowledged 178071
▁spy 178065
alt 178005
▁Viễn 177981
▁xỉ 177980
▁Century 177897
▁bent 177883
▁updates 177882
▁estimates 177871
= 177851
▁ratings 177809
▁Mười 177806
▁critic 177793
▁assist 177792
▁khoái 177739
▁Ky 177706
▁Model 177640
▁inspirational 177623
▁alpha 177539
▁Mitchell 177493
▁Bear 177486
▁Crown 177478
▁Jamie 177469
▁dynamic 177450
▁exposure 177413
▁Baby 177376
▁communications 177312
▁nhì 177267
▁nhăn 177258
▁praised 177220
awa 177121
▁fixing 177116
▁xám 177099
▁exploration 177097
▁Evans 177090
▁lầu 177055
▁revealing 177045
▁đoan 177040
▁Information 177006
▁strikes 176987
67 176984
▁realizes 176960
▁Magic 176959
▁anxiety 176922
▁smiling 176862
▁blast 176842
▁Tiger 176801
▁ownership 176786
▁eighth 176778
▁Lucy 176717
▁targeted 176712
IL 176685
▁miêu 176683
▁ministers 176679
ored 176652
▁Libya 176639
▁laser 176615
▁Melbourne 176568
▁Thai 176560
▁Kem 176555
▁Bóng 176552
▁nôn 176486
▁điền 176455
▁thèm 176372
▁nowhere 176326
▁Throughout 176298
aud 176294
▁Sức 176286
worth 176257
▁Oklahoma 176253
▁Upon 176220
▁Cold 176205
▁CSĐT 176202
▁custody 176188
▁cheek 176151
CN 176138
▁Care 176137
▁mông 176135
▁luxury 176129
▁Broadway 176002
▁Village 175957
▁Lượng 175940
▁Eve 175938
▁universities 175872
▁Copyright 175788
▁360 175780
▁footballer 175780
78 175762
▁shell 175694
▁poly 175583
▁mạ 175570
▁surprisingly 175567
▁sorts 175554
▁Than 175538
bert 175496
▁Nigeria 175488
▁hoà 175487
▁approaches 175479
▁dimensional 175466
▁economics 175465
▁deemed 175464
▁Trạch 175441
▁Palestine 175430
▁enormous 175373
▁def 175289
▁winds 175207
▁stimulus 175198
▁chửi 175178
▁Make 175176
37 175165
▁interactions 175135
ual 175080
BS 175077
ring 175058
▁Beautiful 175021
no 174981
▁Chế 174950
▁ins 174946
▁Due 174945
▁bùn 174925
▁producers 174892
▁ON 174769
▁scores 174752
▁Pol 174748
▁murders 174725
▁Bái 174711
▁Blake 174709
▁spends 174704
▁bottle 174693
▁rể 174679
jo 174678
▁visible 174667
▁Sm 174614
▁1951 174570
anc 174567
ota 174502
▁attending 174490
▁lyrics 174470
▁Trình 174454
▁nhã 174439
▁lord 174432
aro 174417
▁trapped 174414
▁accomplished 174383
▁2,5 174352
▁skip 174330
▁helicopter 174282
ight 174277
▁đặn 174249
▁airline 174248
▁Johnny 174228
ami 174203
▁worn 174203
▁hockey 174192
▁thiền 174158
▁institution 174132
▁occasion 174122
▁banned 174118
▁Larry 174115
▁Katie 174110
▁islands 174051
▁quote 174046
▁gains 174045
▁Historic 174038
▁karaoke 174024
▁centered 173932
▁managers 173916
▁obtain 173862
▁honesty 173861
▁defence 173823
▁Carlos 173795
▁Kn 173785
▁Ontario 173780
▁maker 173775
▁BR 173644
▁chiên 173617
▁Raj 173611
▁swept 173593
▁infrastructure 173591
▁remind 173522
▁tò 173512
▁discusses 173511
▁Hiển 173426
▁ant 173345
ously 173314
IP 173298
▁reserve 173298
▁Express 173295
▁bathroom 173259
▁portrait 173252
▁lê 173250
oli 173240
▁viewers 173240
▁mining 173232
▁Abu 173230
▁Route 173058
▁convention 173047
iest 173030
▁slight 173008
▁2-3 172997
▁ind 172996
▁VĐV 172898
ios 172890
▁Trạm 172872
▁đắng 172860
▁proven 172855
▁Emperor 172804
▁fundamental 172773
umb 172757
▁HTX 172744
▁dropping 172690
▁Hills 172654
▁statistics 172641
▁Collins 172631
▁youre 172596
▁vịt 172587
iana 172578
▁youngest 172565
▁earthquake 172491
▁bách 172485
▁Catherine 172441
▁thun 172439
▁đạm 172367
▁Diệp 172362
▁Run 172346
▁handful 172231
chi 172177
▁Holmes 172173
▁Motor 172170
▁diệu 172160
▁Metro 172129
iles 172025
▁stocks 172012
▁ranging 172006
32 171947
ifying 171941
app 171920
▁bộc 171902
▁recover 171893
▁adorable 171856
▁margin 171854
▁Ru 171846
ores 171834
▁vaccine 171821
▁Junior 171761
▁Liệu 171701
▁Stock 171701
▁elite 171668
inn 171658
▁Lucas 171604
▁franchise 171604
▁passionate 171584
▁dragged 171578
▁signing 171519
▁analyst 171511
▁consciousness 171502
▁bone 171468
▁Hol 171405
▁subscription 171386
44 171382
vin 171361
▁sacrifice 171347
▁recommendations 171275
▁Karen 171263
▁flood 171218
▁unbelievable 171196
▁engines 171054
▁balanced 171025
▁contracts 171007
aking 170994
▁lướt 170980
▁extend 170965
▁meaningful 170942
▁niece 170939
eck 170925
▁Nicholas 170879
▁breakfast 170807
▁rệt 170796
▁influential 170762
▁Constitution 170721
▁trễ 170705
▁Josh 170691
▁gradually 170690
ense 170689
▁kép 170631
▁Bond 170619
▁Studies 170595
▁abortion 170595
▁distant 170572
▁Card 170546
▁Dow 170486
▁rid 170453
▁colored 170407
▁supports 170390
▁unnecessary 170351
▁Marshall 170350
▁beaten 170347
▁Plan 170298
▁sưng 170281
▁Chase 170278
▁naturally 170270
uss 170266
▁handsome 170250
▁Neil 170206
▁đống 170175
▁universal 170165
▁satellite 170160
▁Ind 170159
▁Iron 170140
▁funeral 170135
▁resident 170112
lets 170109
▁meals 170094
▁Phù 170069
▁Ltd 170067
▁gently 170066
á 170055
ape 169992
▁Ger 169992
▁Munich 169980
ying 169978
▁knees 169917
▁Within 169912
▁sufficient 169909
▁flawed 169900
▁investigators 169892
▁compassion 169883
▁Ts 169880
▁bones 169862
▁keo 169838
▁directors 169744
▁Billboard 169642
▁fee 169632
▁Int 169622
▁frustration 169598
▁lip 169590
aine 169570
▁soil 169567
▁rải 169478
▁Hampshire 169413
▁smoking 169382
▁1936 169377
amb 169370
▁bóp 169312
▁Ngành 169281
▁DO 169246
▁reportedly 169236
UR 169234
▁Tờ 169214
▁machines 169124
▁heal 169091
▁Liberal 169069
▁logical 169064
▁senator 169022
▁sized 168951
▁ears 168945
▁Bayern 168877
▁theology 168876
▁100.000 168838
:00 168834
▁clinical 168802
34 168799
▁guides 168776
▁encountered 168767
▁Rem 168743
▁âu 168724
▁Spring 168723
▁int 168723
▁objective 168711
▁stating 168699
▁underlying 168664
▁disclosure 168663
▁Bang 168652
▁superior 168651
▁khoang 168613
▁nhí 168605
▁Tứ 168553
▁improving 168551
▁loyal 168510
▁Connecticut 168508
▁sụp 168484
urg 168457
▁nang 168433
▁polls 168421
▁rạp 168379
▁upcoming 168333
uring 168315
▁CB 168252
▁Page 168251
▁brick 168243
▁quoted 168197
▁execution 168147
▁permission 168104
▁Est 168069
ography 168060
▁testimony 167991
▁Dem 167972
▁appealing 167962
▁conclusions 167916
▁Barry 167868
▁gathering 167837
▁frustrating 167824
▁valley 167817
▁ni 167789
▁situated 167777
▁gods 167771
▁DJ 167769
▁eo 167764
▁EP 167757
▁Oliver 167753
▁1918 167752
▁bold 167747
▁Hỗ 167716
arm 167695
▁HAGL 167666
▁nhậu 167640
▁Che 167604
▁mainstream 167602
▁currency 167576
▁Sẽ 167535
▁Shah 167533
▁operates 167528
▁Vòng 167507
▁Pu 167450
▁departure 167426
▁efficient 167395
▁surviving 167361
▁nhỉ 167335
▁neighbor 167293
mon 167287
▁laughter 167238
▁Angela 167234
▁tồi 167230
gy 167218
▁zombie 167217
▁Magazine 167206
▁rivals 167206
▁Hyundai 167181
▁1938 167165
▁chat 167163
▁lasted 167162
▁Den 167107
▁Nằm 167075
▁bars 167075
▁routine 167034
▁Ser 167005
▁Limited 166967
▁dẻo 166945
▁Ted 166942
▁rapid 166916
▁Tech 166915
▁expects 166914
▁xoa 166893
▁Register 166839
▁chiêm 166832
▁Storm 166830
▁Girls 166818
▁leather 166719
▁nurse 166713
▁aired 166693
▁registering 166687
▁Mur 166657
▁possession 166656
ope 166616
▁Sin 166593
▁commissioned 166563
▁Niên 166529
,000 166502
▁Khả 166457
▁musicians 166421
▁storytelling 166408
▁đính 166396
osh 166339
▁bonds 166292
▁Ah 166276
▁Costa 166253
▁discussing 166218
▁slipped 166194
▁Communist 166183
▁Cast 166173
▁Sil 166167
▁inox 166155
▁powered 166125
▁Wil 166104
▁Pittsburgh 166100
▁wider 166042
▁đếm 166018
eter 166012
▁xôi 166009
▁Feb 166003
85 165986
▁amazed 165986
ria 165947
▁heaven 165918
▁len 165869
key 165845
▁batteries 165841
▁Mong 165832
▁Maggie 165769
▁Đế 165735
▁Virgin 165674
▁exceptional 165668
▁witch 165660
▁monthly 165650
▁derived 165632
▁Area 165626
▁Given 165598
▁joke 165530
▁minded 165521
BC 165501
▁bai 165474
▁Snow 165463
▁compensation 165437
▁hospitals 165436
▁ráo 165362
▁thỉnh 165346
▁assembly 165332
▁angel 165323
▁fighter 165302
▁Soon 165288
▁rocket 165249
▁Faith 165189
▁Chọn 165188
▁repair 165184
▁involve 165178
▁essay 165172
▁nhặt 165170
▁genetic 165161
▁Trúc 165135
aks 165104
▁ugly 165101
▁Hàm 165071
▁conventional 165063
▁Les 165048
▁sấy 165042
▁pride 165016
ches 164999
▁blamed 164928
▁traditions 164915
▁rely 164895
▁thìa 164889
▁knocked 164851
▁funded 164785
▁jeans 164778
▁preparation 164756
▁Pearl 164736
▁Indians 164733
▁gene 164703
▁PA 164678
▁exclusive 164637
▁halfway 164560
▁Market 164516
▁3.000 164484
▁Lost 164432
▁components 164432
▁dies 164422
▁rocks 164415
▁BMW 164413
▁Federation 164364
▁ván 164338
▁clues 164325
▁wound 164291
▁tui 164248
aut 164228
eless 164216
▁experiment 164207
▁wasnt 164165
▁Kiệt 164161
▁Jessica 164159
lands 164133
erm 164124
▁cricket 164122
▁bat 164108
▁Prior 164087
▁Mở 164011
more 163993
▁Wonderful 163986
▁chase 163963
▁Policy 163932
bi 163926
▁Rather 163883
▁thru 163793
▁tạ 163769
▁Tar 163762
▁View 163752
▁tag 163745
▁strip 163729
▁Pin 163724
▁medieval 163723
▁Austria 163722
▁Command 163712
▁Tay 163704
▁nhường 163704
▁Tottenham 163669
▁lawsuit 163662
▁Gray 163639
▁Thailand 163635
▁Rec 163630
▁tactics 163606
▁thắn 163590
▁cồn 163533
ower 163516
▁assessment 163494
▁Kids 163482
▁1-2 163481
oot 163435
▁fighters 163434
▁105 163379
▁ốp 163349
▁phones 163339
▁shallow 163318
▁Ngược 163298
▁pointing 163252
▁notion 163160
▁Nay 163150
▁Sound 163145
▁1,2 163120
▁kit 163114
▁Reid 163059
▁duties 163057
▁residence 163037
▁Baker 163022
ones 163018
▁Others 162999
▁expenses 162984
▁Jerry 162960
▁repetitive 162958
▁reflection 162951
▁stunning 162925
▁ah 162912
▁kingdom 162899
▁Po 162877
▁incorporated 162807
▁legend 162803
▁northwest 162683
▁mere 162638
oni 162636
omb 162568
▁elderly 162517
▁Beth 162495
▁eggs 162484
▁timely 162467
▁chìa 162454
▁Senior 162426
▁proposals 162421
TH 162402
▁Hắn 162376
▁innings 162365
▁occasions 162365
▁neo 162356
cl 162303
▁kicked 162289
▁Dam 162287
hu 162282
▁ngứa 162275
▁Tal 162274
▁Additionally 162271
▁láng 162236
UBND 162209
ured 162188
▁đinh 162134
▁gross 162125
▁Kông 162104
▁220 162065
▁CL 162042
▁speaker 161955
▁Morris 161889
▁Affairs 161875
ping 161755
▁steamy 161738
▁Nhã 161706
▁hungry 161685
▁notably 161666
▁waves 161629
▁Front 161581
igh 161573
▁competing 161541
▁Norway 161518
▁Kay 161509
IR 161485
▁witnesses 161458
▁Đống 161445
▁awkward 161442
▁kẹo 161436
▁Smart 161420
▁hạm 161403
ement 161330
▁checking 161329
▁Testament 161203
▁chợt 161187
▁inappropriate 161057
ras 161039
▁Rain 160969
▁yoga 160965
▁appointment 160853
▁dem 160853
▁addiction 160821
▁gục 160820
▁touches 160815
sey 160811
▁reread 160784
▁coat 160773
▁hước 160729
▁Franklin 160721
▁rốt 160712
▁distributed 160699
▁gym 160692
▁Cựu 160669
▁Khải 160625
▁Taiwan 160612
▁indicate 160583
▁Tan 160551
▁Cư 160536
▁ranh 160536
DS 160498
▁prosecutors 160482
▁Place 160407
▁Utah 160375
▁celebrity 160324
▁cats 160267
▁nầy 160248
▁woods 160248
▁Control 160239
▁READ 160237
▁CĐV 160222
▁res 160164
▁argues 160128
▁musician 160110
▁amusing 160107
à 160080
▁175 160076
▁acceptance 160034
▁Calif 160024
▁angst 160008
▁intimate 160005
▁unc 159998
▁predicted 159983
▁reduction 159962
inger 159955
▁output 159950
▁Earl 159922
▁nhọn 159910
▁Conservative 159876
▁inhabitants 159867
69 159829
▁Màn 159822
▁Hannah 159723
▁bombing 159715
rian 159713
ishing 159688
▁belt 159657
▁requested 159656
▁jacket 159616
▁Tới 159600
▁sét 159594
▁bags 159570
▁Hand 159530
▁Baltimore 159507
▁conflicts 159494
Tr 159457
▁controls 159451
▁vã 159427
▁sheet 159407
▁naked 159406
▁Intel 159380
▁jet 159330
ork 159312
▁Former 159276
▁cúp 159272
▁Giai 159236
▁aggressive 159193
▁Small 159183
▁reducing 159124
▁pe 159111
▁Claire 159048
aker 159003
▁shy 158987
▁Tel 158982
▁principle 158981
▁Nobel 158977
▁reaches 158965
▁elect 158956
▁cấy 158934
▁defending 158930
zz 158899
▁explosion 158889
box 158769
▁wishes 158753
▁philosophical 158747
▁instruction 158718
▁bitter 158698
▁suitable 158638
▁bare 158633
▁Quế 158590
▁promising 158585
▁Mason 158564
▁siblings 158549
▁resolved 158497
▁ranking 158496
▁shops 158466
▁dancing 158444
▁mentions 158359
ables 158327
▁disorder 158307
▁1937 158305
▁observations 158276
▁unclear 158268
▁payment 158266
▁Mường 158251
▁Dog 158243
▁Victorian 158238
▁Attorney 158199
▁boxes 158191
uck 158167
▁Fish 158130
▁legacy 158099
ef 158040
▁appearing 158014
▁5.000 157988
▁pale 157972
▁Local 157915
▁cuộn 157902
▁gate 157816
▁likable 157811
RA 157773
▁Memorial 157734
▁ir 157717
▁dặn 157709
▁túng 157670
▁bankruptcy 157654
▁TM 157652
▁scope 157625
ult 157624
yr 157613
▁tables 157559
▁Shakespeare 157529
▁toll 157529
stein 157525
▁excuse 157487
ét 157461
▁Kenya 157461
▁lận 157451
▁commenting 157386
▁resolve 157373
▁Bor 157372
▁bồ 157371
▁elementary 157368
▁sucked 157353
ned 157332
▁shifted 157268
izes 157180
▁holy 157136
▁tóm 157116
▁Price 157112
▁Natural 157095
▁arc 157070
▁boot 157055
▁Camera 157033
▁Officer 157025
▁Nàng 157004
▁villain 156990
▁sake 156976
▁Meg 156875
▁HEA 156850
▁Nhằm 156827
▁Tum 156796
▁rebels 156789
▁quỷ 156712
▁rễ 156687
▁evident 156666
▁cõi 156647
▁paragraph 156645
▁QH 156636
▁tackle 156605
▁thoa 156591
▁cave 156492
▁drives 156485
▁khoẻ 156485
▁anxious 156472
▁ag 156470
▁Lin 156465
▁Week 156441
▁Rod 156428
▁Grey 156388
▁vu 156373
▁Caribbean 156353
▁bell 156346
▁Harper 156320
▁counts 156289
▁amateur 156274
▁prince 156269
▁missions 156233
▁SEO 156220
ead 156196
▁Authority 156171
▁Mấy 156153
▁khuất 156134
enn 156132
▁Brazilian 156120
▁Liga 156113
▁comics 156106
▁Maine 156070
/2009 156067
▁metres 156058
▁sườn 156032
▁nick 156006
ider 156004
▁implement 155985
ads 155982
▁cared 155977
▁handy 155927
▁SE 155910
ken 155872
▁cabinet 155868
▁dỗ 155859
▁shower 155760
▁transportation 155734
▁reset 155701
▁hạch 155691
itions 155666
▁Temple 155628
▁Reg 155609
▁precious 155587
▁photographer 155564
▁technologies 155488
▁jumping 155483
▁quirky 155455
▁NBA 155449
▁Julie 155446
▁delay 155434
ld 155403
▁tropical 155393
▁Boeing 155366
▁bú 155350
MT 155346
▁belong 155341
▁SC 155298
▁đắm 155271
▁seized 155266
▁Blair 155253
▁Khác 155245
▁earliest 155232
▁stopping 155232
▁Reagan 155229
▁swing 155207
▁entertained 155203
▁residential 155196
MP 155164
▁drunk 155164
▁Indeed 155094
▁Wind 155093
▁Ruth 155067
▁slid 155063
▁amongst 155062
▁grip 155048
▁fed 155032
▁Tám 154943
▁chốn 154923
▁lơ 154906
▁woven 154862
▁nghiệt 154832
▁chaos 154819
▁lột 154781
▁recommendation 154732
▁ghen 154726
▁organ 154676
▁Gabriel 154673
▁athletes 154673
▁Kính 154672
▁xí 154639
ted 154585
▁115 154544
▁experiencing 154431
▁celebrated 154421
▁politically 154421
▁hed 154412
yan 154400
▁giếng 154350
▁Benjamin 154348
▁Khoản 154322
▁cake 154285
▁framework 154265
aly 154262
outs 154243
▁restored 154231
▁longest 154224
▁develops 154207
▁KCN 154177
ulation 154174
▁isolated 154154
▁Croatia 154152
▁Besides 154147
▁HĐXX 154129
▁Enjoyed 154117
ray 154060
▁Action 154042
▁Cur 154007
▁displayed 153984
▁protecting 153978
▁anticipated 153878
▁1933 153851
▁Rom 153847
▁Villa 153804
▁marine 153789
▁generated 153759
▁fifty 153723
▁Hamas 153710
▁citizen 153703
▁resist 153687
▁campaigns 153661
▁mac 153646
erg 153615
▁dam 153592
▁chicken 153554
▁believing 153549
ss 153548
▁habit 153543
▁Made 153518
▁Phút 153503
▁guarantee 153416
▁forgiveness 153372
▁muôn 153354
▁bloody 153330
▁khiêu 153305
▁Vịnh 153296
▁NCAA 153253
▁VND 153246
▁scholarship 153246
▁Woman 153240
▁Edinburgh 153217
▁keen 153149
▁Ang 153137
▁seeks 153136
▁uncomfortable 153122
▁ke 153046
▁Chấp 153028
▁occupation 153028
▁Bát 153016
▁Karl 153014
▁nguyệt 152996
▁casual 152992
▁attract 152973
▁ủ 152963
▁relatable 152961
▁submit 152946
▁striking 152941
▁Danny 152939
▁recalled 152922
▁Mail 152906
enc 152829
▁prompted 152762
▁scholar 152672
▁desperately 152659
▁quarters 152644
▁Đặt 152606
▁swimming 152601
▁buyers 152597
▁arrives 152591
▁pound 152571
▁bronze 152534
▁slavery 152527
▁shaking 152519
▁stroke 152478
ăng 152473
▁Ob 152469
ci 152460
▁den 152444
▁Tuyến 152438
▁presidency 152435
▁examination 152428
▁GOP 152361
▁Short 152286
▁Marketing 152222
▁hop 152214
▁ev 152195
▁closest 152174
▁rent 152139
▁kissed 152130
▁khánh 152123
▁đan 152118
▁nhiếp 152116
▁RAM 152076
▁stays 152071
▁thrilling 152067
▁Denver 152045
▁Uyên 152035
▁somebody 152028
▁khử 151973
▁invest 151964
▁Cúc 151919
▁tunnel 151916
▁deny 151911
▁encounters 151892
▁crude 151890
aria 151874
▁đè 151836
▁bơ 151823
▁naval 151808
▁builds 151789
▁đuối 151762
▁Sur 151759
ald 151721
▁collapsed 151688
▁virtual 151673
▁loyalty 151664
▁introduces 151656
▁fifteen 151587
▁novella 151570
▁makeup 151569
atch 151558
zy 151551
▁load 151547
▁embrace 151544
▁perspectives 151544
▁closure 151529
▁Thí 151508
▁blown 151505
▁Khởi 151501
▁dishes 151470
▁iOS 151465
▁categories 151450
▁Orange 151331
▁Rịa 151329
▁đục 151295
▁Cận 151269
▁diplomatic 151169
▁activists 151161
▁OS 151131
▁avid 151125
▁Boys 151119
▁demanding 151119
▁tribute 151119
▁vòi 151099
▁op 151027
▁Edition 151025
▁remarks 150984
▁Ry 150967
▁450 150956
▁nhị 150942
CO 150933
▁Yemen 150901
▁forecast 150882
adi 150858
▁slip 150842
▁pregnancy 150831
▁branches 150806
NT 150757
add 150743
ị 150705
▁xổ 150703
▁Đá 150640
▁reign 150583
▁practically 150558
▁Ngũ 150554
▁Giáng 150539
▁xào 150530
▁điêu 150447
▁NY 150441
▁Finance 150421
▁shore 150315
▁collections 150303
▁triết 150290
▁questioning 150285
ava 150267
▁fur 150230
▁Đồn 150174
▁restrictions 150168
▁uốn 150157
esh 150146
▁MTTQ 150125
▁consisted 150115
▁Egyptian 150112
▁vớt 150100
▁Nevada 150064
▁auction 150043
▁1917 150002
▁boats 149960
▁habits 149958
▁charm 149944
▁Lily 149932
▁Ass 149911
▁Turner 149888
▁documented 149886
ams 149865
aster 149860
▁Es 149816
▁Forces 149813
▁glance 149801
ez 149717
▁maintenance 149711
▁hẻm 149704
▁Uy 149694
ester 149674
▁rounds 149670
▁Guardian 149650
▁collaboration 149636
▁Rodriguez 149616
ất 149586
▁Lắk 149585
▁angle 149582
▁Vệ 149578
▁Sửa 149536
▁appreciation 149531
▁1919 149454
▁fame 149445
▁routes 149445
▁weaves 149444
▁soccer 149434
▁pit 149401
▁investments 149395
▁organic 149384
▁Lấy 149352
▁Serbia 149263
lers 149253
▁{ 149247
ân 149171
▁Thức 149164
▁grandchildren 149143
▁Bobby 149082
▁khiếp 149081
water 149075
▁Đọc 149068
▁northeast 149040
▁Đang 149034
64 149019
▁cloud 149015
▁Net 148985
▁mồi 148982
▁menu 148897
▁rugby 148868
▁fortune 148857
▁1914 148824
▁} 148824
hr 148823
OL 148811
▁Carr 148788
▁explores 148787
▁shocking 148760
▁Non 148742
EA 148707
▁cameras 148701
▁Helen 148695
▁expense 148640
▁mod 148609
▁Tần 148582
▁Tag 148573
▁Low 148570
▁quầy 148559
▁1929 148547
ect 148503
▁Television 148466
▁alliance 148434
▁tị 148431
▁Us 148406
▁1935 148388
iously 148375
▁sponsored 148372
▁forming 148368
▁loaded 148349
▁essence 148338
▁initiative 148334
▁Norwegian 148321
▁equipped 148289
▁khao 148264
▁slide 148161
▁associate 148133
▁Germans 148106
▁reflects 148092
▁multimedia 148026
▁suggesting 148024
xt 147983
▁borders 147902
▁commit 147899
▁vocabulary 147887
ences 147857
▁pal 147849
▁SM 147812
▁Using 147810
▁sessions 147790
▁Beck 147744
room 147727
▁sits 147726
▁jaw 147721
▁Luc 147707
▁nhát 147693
▁diseases 147644
86 147641
▁Amazing 147633
aff 147619
ished 147592
▁endless 147585
▁trán 147570
▁printing 147566
▁password 147564
▁Chuyển 147559
ION 147545
▁tí 147534
ires 147489
▁colour 147391
▁grave 147384
▁ser 147379
▁spoilers 147374
▁clarity 147313
▁chamber 147286
▁20.000 147257
▁puzzles 147226
▁Norman 147211
▁rounded 147201
elt 147184
▁priority 147182
▁files 147134
▁runner 147117
▁Món 147114
▁hint 147106
▁cháo 147047
▁Fall 147043
uri 146975
aire 146967
▁Ả 146960
dale 146947
▁Portuguese 146927
▁throws 146927
▁bombs 146878
▁Murphy 146872
▁origins 146850
▁logged 146849
▁formally 146826
Ph 146824
▁Masters 146772
▁Puerto 146730
ops 146721
▁Oanh 146642
▁classified 146611
unt 146584
▁Sciences 146568
▁Logan 146560
▁lánh 146560
ensis 146538
▁celebrate 146506
▁Welsh 146463
▁judgment 146445
gen 146439
▁communicate 146422
▁alternate 146420
▁bạt 146393
▁Box 146388
▁fights 146368
▁pants 146349
▁aboard 146344
▁gem 146334
▁viếng 146331
▁evolved 146308
▁gear 146306
▁composer 146286
▁tender 146283
▁Diana 146238
▁Luis 146197
eta 146191
▁parliamentary 146182
TB 146178
▁Bánh 146160
▁feared 146088
▁diesel 146054
▁exploring 146019
ination 146003
▁select 145971
▁useless 145953
▁layer 145935
▁rational 145916
▁Chào 145854
▁Wow 145850
icks 145845
▁bóc 145829
▁characteristics 145828
▁corn 145828
▁bail 145816
▁fabric 145814
▁editions 145803
▁developments 145779
▁peaceful 145754
▁PM 145746
TP 145720
▁Regiment 145718
▁bizarre 145717
▁ngỡ 145717
▁hosts 145710
▁Loài 145691
▁editors 145688
▁outlook 145675
akh 145638
▁stairs 145638
▁reflected 145603
▁HN 145591
▁planes 145568
▁Xu 145566
iser 145489
▁segment 145476
▁intensity 145473
ient 145353
▁Chùa 145327
ENT 145310
▁Birmingham 145299
▁deserved 145285
▁industries 145264
▁champions 145248
▁blend 145240
▁ads 145215
▁PRNewswire 145190
▁nhục 145190
▁ngất 145155
▁exit 145149
▁Peru 145143
▁significance 145122
▁xắn 145023
ye 144982
▁gut 144982
itor 144916
▁MPs 144905
▁Code 144891
▁1934 144855
gin 144812
▁cor 144809
▁Sudan 144807
▁realm 144774
aves 144765
▁Phillips 144764
▁mượt 144763
ốc 144731
▁agricultural 144730
EP 144721
▁discount 144701
owing 144663
▁truths 144649
▁possibilities 144624
▁blew 144618
▁Vẫn 144617
har 144595
▁Reaction 144594
▁creature 144564
▁creativity 144545
owed 144533
▁pastor 144509
▁Quinn 144444
▁Hudson 144425
▁procedures 144398
▁tourist 144397
▁pray 144373
▁Singh 144371
▁AIDS 144311
▁representatives 144303
▁orange 144288
▁NS 144274
rel 144267
gar 144252
▁Ice 144252
▁mob 144234
▁enjoyment 144217
▁provincial 144189
▁bow 144157
car 144156
▁tước 144121
▁đán 144109
▁Kerry 144097
▁Aug 144070
▁trĩ 144056
▁complexity 144049
▁sadness 144046
▁moderate 144045
▁Kan 144015
▁ent 144006
▁expanding 144004
▁pur 143996
▁reverse 143880
▁Sav 143872
▁Mông 143854
▁qualities 143853
▁tremendous 143853
▁SR 143851
▁instruments 143822
▁FDI 143805
▁SJC 143803
▁xì 143800
▁1800 143769
▁cheaper 143765
▁GB 143737
▁bases 143735
▁Arkansas 143729
▁Log 143661
▁successor 143647
inc 143625
43 143622
ư 143604
wan 143594
▁Bức 143570
▁Room 143554
oms 143521
▁thread 143521
▁incidents 143514
▁Rooney 143475
▁understandable 143468
▁wrap 143435
▁đùi 143412
▁Written 143410
▁BT 143406
▁gõ 143400
▁muscle 143378
▁dominant 143363
zi 143341
▁asleep 143321
▁nàn 143319
▁Labor 143318
▁awhile 143307
▁max 143295
▁touchdown 143275
▁fathers 143262
▁viền 143261
▁LĐ 143239
▁followers 143233
▁Leo 143224
▁inquiry 143206
▁Medicine 143184
▁Qatar 143172
aga 143128
▁Based 143119
ym 143116
pa 143108
▁gather 143084
▁restore 143082
cher 143078
▁citing 143047
▁rèm 143046
▁Hiểu 143019
▁Tướng 143008
▁sharply 142993
▁Jefferson 142969
▁gạt 142910
▁layout 142901
▁punishment 142875
cy 142873
▁relating 142857
▁spare 142845
▁nọ 142802
▁slaves 142796
▁Say 142773
▁reluctant 142739
▁opponent 142723
▁squ 142695
ôn 142694
▁tú 142671
▁dirt 142637
▁GT 142608
▁Carol 142588
▁Aaron 142531
▁clue 142500
▁sighed 142494
▁contribute 142465
▁Sweet 142446
▁Tuyển 142428
▁hom 142412
▁dual 142407
▁Tốt 142350
▁utterly 142335
▁Wish 142321
người 142316
▁Harrison 142315
.11 142302
▁releases 142265
▁span 142217
▁Tang 142211
▁si 142202
▁Dis 142186
▁regulation 142175
je 142174
▁posts 142151
▁predict 142139
▁tense 142126
▁concentration 142107
▁Side 142084
▁external 142069
▁hunter 142065
▁BOT 142064
▁râu 142063
zer 142044
▁uk 142027
▁Kích 142020
▁Bat 142013
▁prospect 142009
▁Alliance 141963
▁Bernard 141960
▁rel 141946
▁báu 141934
▁lending 141922
▁cares 141921
rey 141902
▁crashed 141886
▁imagery 141826
▁disagree 141822
▁Đỏ 141795
▁Mind 141788
▁Mid 141787
▁submission 141775
▁TQ 141764
antly 141751
iet 141742
▁highlights 141742
▁Madison 141717
▁diagnosed 141710
▁consistently 141698
▁Mậu 141693
▁lacks 141669
itch 141658
▁Ferguson 141635
▁likeable 141590
▁Wang 141582
ồng 141555
▁demonstrated 141541
XH 141513
▁theres 141487
▁Drew 141485
▁hopeful 141449
▁Arch 141364
▁transformation 141355
▁layers 141352
▁beginners 141345
▁Vùng 141305
▁Mus 141302
▁Truth 141295
▁Oil 141291
▁headline 141286
▁protesters 141277
▁khiêm 141269
▁Xét 141261
▁saga 141250
▁mía 141223
arr 141216
▁organisation 141178
▁steal 141150
▁reactions 141144
▁obsessed 141025
▁constitution 141013
▁Lebanon 140988
▁Bắt 140974
▁Gall 140966
▁dang 140956
▁inspire 140954
ching 140937
▁Giống 140930
▁consumption 140921
▁waist 140913
▁sooner 140898
▁Bangladesh 140880
gu 140865
net 140813
í 140808
▁NV 140781
▁coastal 140762
▁khía 140728
▁AB 140717
▁Theater 140705
▁panic 140705
▁tản 140679
ilt 140677
77 140656
▁composition 140642
▁furniture 140637
▁roller 140633
▁Tạ 140598
▁burst 140595
ares 140554
▁choosing 140552
▁sir 140529
▁bite 140520
▁uns 140461
41 140443
▁cliff 140427
▁ruin 140374
▁Living 140372
▁xoắn 140369
▁liquid 140321
▁peoples 140302
▁processing 140185
▁complained 140087
▁xuôi 140079
▁afterwards 140024
▁traded 140002
▁nhộn 139937
▁Kam 139897
▁ninth 139879
uses 139870
▁punch 139862
▁colonial 139855
▁proves 139853
▁twins 139795
▁Nevertheless 139793
▁cotton 139781
▁holidays 139781
▁alot 139760
▁vịnh 139745
▁CTCP 139711
▁Bin 139687
▁downs 139682
ters 139661
▁MA 139653
▁bench 139645
▁whereas 139591
light 139583
▁Penn 139578
▁stability 139574
▁protective 139554
▁discipline 139547
▁shelter 139534
▁ngẫu 139518
▁scenario 139516
▁Almost 139478
▁shrugged 139466
▁Marcus 139465
▁dạn 139465
▁Guy 139446
▁painter 139432
▁Khanh 139430
▁Diễm 139423
▁speculation 139364
▁dép 139356
▁heartbreaking 139346
▁ngu 139337
bar 139332
▁hưng 139320
▁Township 139316
▁crap 139271
▁Jun 139261
▁thủng 139244
err 139238
▁kiêng 139230
▁replacing 139198
pping 139182
▁belongs 139168
▁Giêsu 139166
▁obstacles 139130
▁Saigon 139127
▁kidnapped 139119
▁snapped 139110
▁myth 139096
▁Sure 139091
▁tourists 139081
▁biological 139060
95 139047
▁Idol 139045
TA 139037
▁Region 138996
▁Ri 138974
▁bullet 138970
▁stranger 138957
▁partially 138936
▁vessel 138925
▁entries 138891
▁respected 138876
▁sole 138869
▁BP 138846
don 138822
▁Blues 138816
▁filling 138816
▁bưu 138750
▁har 138712
▁yến 138689
▁Sab 138685
▁750 138679
ately 138675
▁memorial 138646
MA 138636
▁valid 138545
▁hotels 138508
▁Ur 138489
▁1932 138460
31 138453
isa 138452
▁Ưu 138452
▁PTNT 138442
▁thon 138428
ERS 138411
▁bothered 138407
▁souls 138395
val 138389
▁Todd 138386
▁240 138385
▁trusted 138356
▁Universal 138324
▁Delhi 138288
▁gieo 138271
▁Deep 138263
▁inbox 138222
▁transform 138217
▁connecting 138213
▁urge 138130
▁Watson 138092
▁input 138085
▁Giữa 138066
▁bike 138064
▁Mc 138063
▁recipients 138058
▁exp 138047
▁meters 138040
▁Phóng 138014
▁Khí 138013
▁tạng 138004
▁Rangers 137999
▁Vienna 137976
▁ủi 137964
▁Happy 137959
▁30.000 137957
▁Kho 137947
▁đc 137902
▁spaces 137897
▁historically 137894
▁crown 137853
▁compound 137850
▁Độc 137819
▁lọ 137816
▁Imperial 137762
▁SA 137719
▁mal 137705
▁highlight 137697
▁bã 137676
▁delighted 137666
▁teachings 137584
ington 137570
▁1928 137568
▁behaviour 137558
▁Nghiệp 137536
▁uniform 137492
▁Tyler 137480
▁cheese 137476
▁mo 137474
▁eleven 137450
▁publications 137449
▁tv 137430
▁empire 137421
▁Newcastle 137407
▁Especially 137399
▁cur 137379
▁VH 137326
▁Ashley 137325
▁chọc 137323
ên 137292
▁Queensland 137265
▁Fisher 137260
▁imposed 137212
ining 137182
▁Lão 137182
can 137141
▁southwest 137115
▁doubts 137089
▁vocal 137075
▁mâm 137071
▁relation 137068
▁promoting 137066
▁ngây 137050
▁cooperation 137047
▁Classic 137044
▁lasting 136978
▁gừng 136972
sk 136943
▁Chrysler 136866
▁Staff 136853
▁guidelines 136853
▁Digital 136848
▁climb 136845
▁Wells 136826
▁convincing 136802
▁Dublin 136784
▁placing 136756
▁overnight 136754
▁boundaries 136746
▁estimate 136722
▁mentally 136696
▁forgive 136643
▁Readers 136637
▁Ko 136623
▁supposedly 136602
▁verse 136594
▁starred 136580
▁Mạch 136552
▁DS 136538
▁nationwide 136535
▁terrorists 136525
▁wouldnt 136483
▁Owen 136358
89 136292
ounce 136290
IV 136286
▁circuit 136212
▁dào 136189
▁lust 136184
▁couldnt 136178
▁cons 136089
▁Fame 136078
arian 136057
▁Left 136020
▁vứt 136011
▁rò 136003
▁Economic 136001
▁stem 135990
▁Acc 135973
▁nhang 135965
▁Tags 135961
▁VERY 135944
▁adapted 135936
pper 135923
▁creepy 135922
▁cruel 135916
▁HNX 135909
▁Rh 135899
▁bears 135886
unk 135885
▁Freedom 135874
▁ob 135810
▁rong 135799
▁engagement 135773
▁makers 135770
▁Luân 135768
▁rộ 135763
▁Shanghai 135755
-2018 135730
uts 135707
▁EVN 135700
▁Morning 135694
▁treaty 135644
▁CV 135613
ases 135584
▁rescued 135582
▁alex 135557
▁modified 135547
▁tw 135538
▁1910 135527
isc 135518
▁dep 135499
OP 135409
▁lốp 135399
▁USS 135393
▁Alpha 135386
▁Khương 135380
▁Dun 135350
▁climbed 135349
ched 135342
▁Sex 135295
▁Keith 135264
oud 135239
▁tống 135136
▁credited 135111
▁Khuyến 135110
▁Gun 135088
▁Deputy 135078
▁Youth 135004
▁ordering 134989
▁notified 134985
▁outbreak 134982
▁spark 134950
▁cult 134943
▁Years 134930
ict 134928
ool 134921
▁strict 134917
▁Nation 134908
▁Linda 134863
▁forty 134848
iled 134815
▁ski 134784
▁bỉ 134755
▁trucks 134747
▁princess 134709
▁Representatives 134701
cent 134695
▁Att 134651
▁Lanka 134621
▁Ka 134595
una 134526
▁palace 134502
▁oriented 134477
ocks 134465
▁ripped 134461
▁frames 134446
get 134421
▁Jos 134384
▁50.000 134378
▁Operation 134363
▁Yu 134355
▁Orthodox 134351
▁broader 134307
▁Stanford 134283
▁soap 134253
sc 134244
▁kiếp 134234
▁yours 134226
▁solely 134210
.500 134192
▁Tạp 134125
▁destination 134105
▁Ter 134061
▁chéo 134049
▁poignant 134044
▁Vincent 134019
▁cúi 134018
▁bon 134000
▁Yang 133974
▁devastating 133964
▁Enter 133939
▁veterans 133923
uan 133899
▁wasted 133888
▁tịnh 133850
▁Ir 133849
▁pension 133822
▁faculty 133791
▁blank 133771
▁ngặt 133752
▁awaiting 133732
▁inevitable 133720
ì 133694
oa 133651
▁tặc 133640
▁Sophie 133626
▁southeast 133601
▁worthwhile 133591
lam 133579
▁ang 133576
▁GI 133518
▁flip 133508
▁publish 133505
▁tribe 133464
▁compilation 133463
▁Mom 133451
▁cholesterol 133446
▁Huân 133398
▁Pass 133396
▁Marvel 133383
▁Romney 133371
▁Trấn 133360
▁128 133331
▁specialist 133321
▁secured 133316
omp 133313
iko 133308
▁Always 133304
▁LHQ 133297
▁hum 133249
▁Fin 133248
42 133247
▁phì 133220
▁mỉ 133188
▁nursing 133175
▁Tab 133173
ared 133166
▁Together 133155
▁coup 133139
▁lụa 133135
▁Jesse 133118
▁react 133022
side 133017
▁Opera 133010
▁consideration 132978
▁Lauren 132975
▁None 132958
aging 132940
▁generate 132938
▁magazines 132935
eller 132929
▁divisions 132885
▁weakness 132885
▁congressional 132864
▁pacing 132809
▁motivated 132797
▁LS 132787
▁tribal 132745
▁Ker 132737
▁Flash 132727
▁chui 132712
▁eligible 132686
ices 132667
▁Ju 132665
▁neur 132616
▁riveting 132596
rin 132553
▁privacy 132531
▁wow 132520
ough 132512
▁Soul 132504
▁Vườn 132502
oda 132417
▁Whit 132402
oul 132352
▁earning 132327
▁sol 132325
cha 132308
▁deployed 132280
▁nã 132259
▁Sara 132210
▁produces 132207
▁mat 132172
▁Goldman 132165
▁Shadow 132127
▁ceiling 132084
▁XII 132051
▁define 132051
▁vượng 132040
▁Lộ 132033
▁Leon 132023
▁accepting 131997
▁Earlier 131978
▁Dance 131962
▁participation 131962
▁Ân 131928
▁depicted 131922
mi 131907
▁pursuit 131896
berry 131887
▁Hum 131884
iter 131872
▁annually 131865
▁Nhuận 131852
▁arguing 131842
▁val 131725
▁Therefore 131701
▁maintaining 131694
▁gầm 131659
hy 131634
▁Hunt 131627
▁eliminated 131614
▁Juventus 131610
▁sink 131606
lyn 131587
▁presenting 131575
eman 131561
▁Fre 131516
▁Quỷ 131515
▁tà 131505
▁Danish 131493
▁Something 131483
aco 131469
▁Rõ 131441
▁VTC 131424
▁dumb 131403
AG 131388
▁Tế 131347
▁Diamond 131343
▁Dell 131340
▁ri 131317
▁Gas 131315
▁fool 131315
▁reforms 131278
▁prop 131263
▁muỗi 131261
▁fascinated 131220
▁fierce 131203
▁examine 131199
▁mild 131162
iveness 131151
▁blocked 131138
▁Si 131113
▁asset 131112
▁WW 131078
▁acquisition 131070
▁Bol 131067
▁sophisticated 131044
▁foster 130985
▁darker 130976
▁curiosity 130937
▁flowing 130936
▁Dylan 130923
▁tens 130902
▁belonged 130846
▁hybrid 130845
▁patience 130843
▁operator 130841
▁merged 130838
▁tát 130826
▁integrated 130809
▁completion 130807
▁reviewing 130799
▁sanctions 130785
▁brands 130781
▁loses 130742
▁hints 130725
▁Sullivan 130718
▁sheer 130713
▁1927 130690
▁constitutional 130687
▁hence 130676
▁pleaded 130648
▁Hughes 130611
▁spa 130603
▁profession 130597
ác 130543
▁Organization 130541
cc 130495
▁Form 130485
▁1931 130482
▁Grab 130457
▁Arm 130443
▁Dong 130408
▁1924 130367
▁achievement 130364
nam 130339
▁spelling 130315
▁pilots 130268
▁firmly 130240
▁masterpiece 130236
▁cargo 130228
▁timing 130218
▁Halloween 130217
wick 130202
▁Mạc 130171
▁Nepal 130167
▁Annie 130145
▁spectacular 130124
▁component 130095
▁Cle 130090
▁hoạn 130081
▁thắp 130074
▁sur 130070
▁solving 130048
▁lacked 130036
ista 130023
▁khiết 130019
▁warrior 130006
rell 130004
▁cớ 129989
▁108 129950
▁Reader 129915
▁sỉ 129909
▁scripture 129882
▁motivation 129869
▁midst 129836
▁gốm 129829
ologists 129821
▁cẩu 129794
zh 129764
▁Lớp 129749
▁credits 129731
▁Truyện 129717
▁khốc 129707
▁subscribe 129699
▁innovative 129668
▁Engineering 129611
▁sympathetic 129574
▁giòn 129570
▁Patterson 129562
▁Vatican 129558
▁Denmark 129557
eness 129555
▁Worth 129512
▁explored 129509
▁mythology 129501
▁hire 129498
▁lengthy 129472
▁Dev 129452
ady 129439
▁135 129429
▁indicates 129420
▁HCV 129377
▁coaching 129370
▁simultaneously 129351
ắc 129337
▁Cass 129304
▁prisoner 129299
ional 129249
▁goodness 129233
▁fort 129222
▁interviewed 129214
▁Biblical 129197
▁tribes 129174
▁receives 129170
▁Characters 129160
▁aftermath 129069
▁representation 129065
▁Glasgow 129057
▁Touch 129046
▁jokes 129034
▁channels 129006
▁gàng 129005
▁xịt 128995
▁enhance 128994
▁vỗ 128978
▁attacking 128974
▁frozen 128974
▁clan 128950
▁egg 128944
▁Yankees 128937
▁Chức 128877
▁CM 128874
▁firing 128849
▁Batman 128840
iri 128836
▁volunteers 128823
▁kèo 128815
▁newest 128791
▁sỏi 128767
▁1912 128739
▁shareholders 128721
▁Poor 128720
▁modest 128719
▁Think 128704
▁Kir 128698
▁wounds 128677
▁Romania 128675
▁Dennis 128668
▁sustained 128652
▁Mak 128617
▁phrases 128614
▁2.0 128607
▁Pictures 128599
▁Reed 128595
▁accounting 128571
▁1922 128563
▁bưởi 128546
▁collecting 128534
▁boom 128530
▁suggestion 128472
▁táng 128434
▁domain 128433
▁ambitious 128430
▁Gods 128424
▁XI 128414
▁mounted 128402
▁rách 128336
▁Officials 128309
▁Census 128302
▁conviction 128290
▁Belgium 128270
▁procedure 128267
▁nonsense 128264
▁hả 128243
zo 128229
osis 128212
▁revenues 128172
▁ver 128168
ials 128160
▁Bãi 128141
▁Shaw 128137
▁showbiz 128124
▁Cán 128071
▁Ji 128068
▁gaining 128042
▁BUT 128035
▁consent 128032
▁hét 128026
▁Mall 128025
▁165 128024
iy 128022
▁Naval 128019
▁Montana 128018
uz 128010
▁democratic 128005
▁mãnh 127985
.12 127967
▁Colonel 127917
▁nô 127916
▁transformed 127835
▁straightforward 127819
AND 127813
bridge 127789
▁VP 127775
▁Sad 127725
▁Poly 127710
▁consisting 127696
▁depends 127682
▁Nature 127663
▁tricks 127590
▁Darwin 127570
▁wishing 127544
▁whilst 127536
▁experiments 127522
ho 127503
▁Nathan 127492
▁reg 127489
▁catching 127482
▁Lim 127479
▁Gre 127430
▁Frederick 127417
▁steep 127417
▁Tủ 127383
▁OR 127356
▁bath 127306
▁Plaza 127299
▁1925 127297
▁streak 127267
▁march 127265
▁colleges 127184
▁favour 127184
▁Montreal 127179
time 127130
▁array 127098
▁lean 127098
▁tends 127097
▁Pay 127093
▁bishop 127087
▁cure 127079
▁Trực 127078
ania 127052
aring 127044
▁Dĩ 127032
▁demonstrate 127030
▁font 127022
▁retained 126980
▁Sống 126924
▁Baseball 126919
▁Java 126914
▁avoided 126906
▁bull 126901
▁MY 126900
▁diary 126882
▁Delta 126880
▁disp 126876
▁dependent 126847
ells 126827
▁Mạng 126813
▁IC 126797
-2017 126796
▁ĐB 126782
▁outer 126761
▁Handbook 126757
bers 126737
▁Portugal 126686
▁Dakota 126675
▁Giants 126673
▁thumb 126671
▁portrayal 126622
▁200.000 126562
▁understands 126562
▁Store 126546
▁cliffhanger 126512
▁climax 126498
▁rice 126482
▁ranch 126480
iki 126476
▁Quyên 126440
▁vessels 126420
ager 126391
▁Vấp 126387
▁collective 126374
▁employers 126344
do 126339
▁WAS 126337
▁Hebrew 126321
▁wire 126317
▁1.5 126312
▁chì 126306
▁Hispanic 126287
▁BE 126280
▁toes 126271
▁garage 126266
▁Holocaust 126222
▁shadows 126204
▁Hạt 126201
▁identical 126189
▁xát 126179
▁Commonwealth 126177
▁arriving 126174
CM 126167
▁Blog 126156
▁defended 126122
▁scattered 126121
▁Làng 126113
▁conscious 126105
▁compact 126057
▁Hans 126048
▁Metropolitan 126026
▁Phổ 126012
olo 126009
▁GMT 126003
▁introducing 126002
▁Gallery 125995
▁Portland 125991
▁Lab 125931
vel 125909
▁Vancouver 125898
▁drinks 125895
▁Works 125877
▁respons 125847
▁physician 125839
▁electoral 125834
ago 125814
▁fin 125801
▁gấu 125786
▁fires 125784
76 125783
▁Farm 125777
▁DT 125774
▁spoil 125772
▁historians 125768
▁ep 125749
▁celebration 125747
▁Ing 125746
▁hearted 125740
▁Hugh 125739
▁forum 125738
▁Olivia 125730
▁retain 125712
▁grim 125697
TTg 125693
▁turmoil 125693
▁NLĐ 125688
▁brush 125681
▁gallery 125662
▁renewed 125621
▁secular 125621
▁Va 125584
acking 125560
▁dish 125538
ris 125531
▁advised 125515
▁mixture 125515
▁carrier 125506
▁Type 125483
ls 125472
72 125466
▁sturdy 125454
aked 125428
▁1915 125411
▁ash 125364
▁Nat 125363
▁securities 125361
day 125357
▁Noah 125326
▁Prix 125287
▁thesis 125267
▁Rush 125258
▁Abraham 125245
▁manufacturers 125238
▁switched 125229
▁cope 125203
▁revelation 125199
▁adjacent 125191
▁SEC 125182
▁revised 125174
▁Foster 125169
▁substitute 125150
▁laughs 125129
NN 125117
▁Travel 125090
▁nu 125045
-20 125022
▁Cháu 125022
▁prayers 125017
▁Micro 124982
▁Dal 124979
▁Zimbabwe 124962
▁homeless 124930
▁Report 124883
▁xước 124880
▁cọ 124862
▁1921 124840
▁Quần 124840
▁log 124829
▁3,5 124822
▁rings 124820
▁Federer 124799
ask 124793
▁keys 124757
▁agrees 124721
▁admire 124704
EX 124703
▁donated 124674
▁Days 124668
▁Ký 124668
ait 124664
▁trash 124594
▁\ 124575
ther 124567
▁Further 124550
▁còi 124547
▁forgot 124503
▁thiêu 124497
▁loi 124486
▁Bird 124480
▁register 124428
▁qualify 124410
▁Writing 124404
ike 124385
▁temperatures 124377
oles 124343
▁electrical 124326
ido 124314
▁flavor 124311
▁THAT 124309
▁pleasantly 124302
▁vest 124281
▁expertise 124268
▁kinda 124268
▁perceived 124268
▁billions 124267
▁dặm 124246
▁continuation 124221
kov 124148
▁Stephanie 124131
▁integrity 124050
▁Stuart 124009
▁unions 124002
▁mathematics 123962
▁accuracy 123954
ancy 123952
▁rewritten 123946
▁spotted 123933
▁meditation 123892
▁lộng 123879
etta 123873
▁Nạn 123863
▁manga 123830
▁cleaning 123829
▁reception 123810
▁GP 123798
▁dưng 123793
ove 123787
▁pile 123782
▁eagerly 123777
▁POV 123775
ound 123758
▁shipped 123758
▁Voice 123748
▁romances 123748
▁tedious 123748
hing 123747
▁Núi 123736
▁arrangement 123726
▁communist 123721
▁businessman 123715
▁Friends 123714
▁diversity 123705
▁flower 123698
ving 123691
▁Auto 123675
▁Nora 123659
▁Biểu 123656
▁Cy 123645
▁Amish 123632
▁Lieutenant 123625
▁refuses 123620
▁aims 123619
▁McG 123603
▁Romance 123595
▁municipal 123555
▁acc 123527
▁chin 123508
▁Heaven 123495
▁QU 123488
▁softly 123487
▁Hân 123481
▁generous 123418
▁bọt 123413
▁neat 123410
▁tơ 123408
▁Chàng 123401
▁feeding 123379
▁activist 123363
▁Sữa 123360
▁constituency 123357
kes 123355
▁fence 123353
▁Amanda 123339
▁Tịnh 123338
vis 123324
▁intervention 123319
▁Cant 123293
▁triumph 123287
▁gh 123226
▁efficiency 123174
▁submitted 123150
▁Tamil 123139
▁Mùi 123123
▁1923 123102
utt 123058
▁apartments 123047
▁Furthermore 123022
▁instrument 122995
▁sành 122994
▁absorbed 122992
▁Glass 122899
▁Beyond 122886
71 122880
fl 122867
▁vắt 122846
▁Kiev 122761
▁Từng 122741
▁enable 122736
▁xôn 122721
▁sheriff 122714
▁publishers 122708
▁varied 122699
▁Pierre 122680
▁assassination 122653
▁Come 122644
ided 122639
▁depend 122638
▁pressing 122588
ạc 122587
ivity 122563
▁coin 122562
▁glasses 122539
▁leaning 122519
▁preserve 122506
▁1916 122496
▁Kyle 122493
▁Roosevelt 122492
▁Hero 122472
▁MB 122437
▁momentum 122437
▁completing 122428
▁lined 122396
▁kẽ 122373
▁assured 122369
▁throne 122356
▁quarterback 122352
cer 122350
▁SD 122344
▁AFF 122331
▁reliable 122320
▁1926 122315
▁luộc 122313
▁Chăm 122297
▁conf 122290
▁terminal 122275
▁spectrum 122270
asa 122267
▁Led 122262
▁bulk 122251
▁accomplish 122250
▁canxi 122245
▁corrupt 122228
▁bias 122214
▁giềng 122210
▁Mê 122206
▁bẫy 122198
▁custom 122168
acks 122134
▁hông 122127
▁imaginative 122104
▁Lou 122077
▁improvements 122057
▁measured 122049
▁adaptation 122022
▁Money 122018
▁Places 122008
▁Jung 122000
▁LOVED 121975
▁adoption 121965
▁PT 121964
▁erotic 121963
▁ballot 121948
▁gầy 121894
▁comm 121889
▁Convention 121875
uous 121873
62 121802
▁unt 121792
▁Angels 121787
oop 121779
▁equ 121779
▁Joy 121771
▁Stevens 121739
▁Mountains 121737
▁widow 121736
▁Res 121723
▁samples 121690
▁phô 121684
▁Heritage 121662
▁GR 121655
▁nominee 121646
▁103 121644
▁boards 121641
è 121639
▁finest 121637
▁lesser 121616
▁hatred 121606
van 121585
▁worries 121558
arch 121557
▁Chinh 121557
▁lighting 121547
▁Check 121539
▁railroad 121537
▁surge 121537
▁attributed 121531
▁hít 121500
▁minimal 121499
▁horrific 121470
▁nuốt 121432
FA 121424
▁audiences 121422
▁TC 121404
MS 121396
▁chảo 121394
illo 121387
▁adopt 121371
▁Face 121369
▁stretched 121366
▁neutral 121348
▁suspicious 121339
▁500.000 121335
▁Tống 121331
▁Jam 121287
▁sends 121276
▁forests 121275
▁server 121265
▁poetic 121253
▁yen 121250
▁needing 121244
▁longtime 121234
▁Phụng 121217
▁palm 121210
▁compliance 121186
▁AI 121161
▁adviser 121157
▁intentions 121102
▁Fu 121088
óc 121055
pm 121048
▁commented 121046
▁Silva 121032
▁Bas 121023
BTC 121012
▁Medal 120998
▁Tưởng 120993
▁nến 120987
▁rebel 120970
▁IF 120965
▁WHO 120949
▁tasks 120930
▁betrayal 120923
oun 120903
▁hills 120903
▁listing 120900
▁tightly 120886
▁populations 120865
▁Schools 120811
▁Resort 120792
▁Regional 120749
ces 120747
ới 120707
▁mùng 120703
▁chen 120668
▁Mediterranean 120618
▁boots 120606
▁abused 120601
▁Shin 120596
▁reserves 120583
▁foul 120580
▁downturn 120552
▁monsters 120548
▁lol 120524
▁expedition 120521
▁dim 120507
▁sadly 120503
LA 120493
▁Kiểu 120476
ours 120453
amin 120437
▁khoá 120435
▁inform 120418
▁Eventually 120412
▁xảo 120409
▁Julian 120403
▁bực 120394
▁BA 120388
▁anecdotes 120384
▁Khuê 120381
▁highlighted 120373
▁heroin 120359
▁Jin 120348
▁solved 120301
▁Simpson 120291
▁Brussels 120281
iva 120261
▁lẫy 120260
▁relax 120253
▁circles 120246
▁chuồng 120242
▁Sum 120240
▁Pick 120226
▁tăm 120225
▁welfare 120218
▁Mich 120206
▁cruise 120205
▁ES 120195
▁nail 120185
▁controlling 120180
▁captivated 120151
▁edges 120142
▁legislative 120141
▁Mod 120131
▁consultant 120128
LC 120109
▁gậy 120099
lock 120089
▁counties 120079
▁Chuẩn 120056
iano 120015
▁desires 120015
aceae 120014
▁sigh 119966
▁Alfred 119965
▁elaborate 119964
▁Tiết 119952
▁implemented 119937
umi 119893
lic 119883
▁mult 119864
▁coll 119863
▁ruined 119861
▁xài 119844
▁couch 119829
▁acres 119744
▁rebounds 119742
▁downloaded 119732
▁Securities 119723
▁Lĩnh 119722
▁exclusively 119708
▁conservation 119702
▁Tur 119678
▁Bah 119663
▁assignment 119634
▁discovering 119626
▁parks 119619
▁typos 119604
▁Mos 119587
▁raid 119586
▁hu 119584
▁adapt 119574
▁Bus 119552
▁Give 119548
▁gò 119532
▁Season 119502
▁ND 119499
▁delegates 119494
▁patrol 119494
▁Củ 119472
▁Holly 119466
▁warfare 119430
▁trailer 119428
▁complain 119427
▁Spencer 119423
▁glory 119391
▁Nixon 119390
▁Bennett 119370
▁Better 119366
▁Study 119340
▁photograph 119322
▁dive 119317
▁Thì 119267
▁blessed 119236
▁phenomenon 119226
▁Castro 119212
▁hãm 119206
▁casualties 119198
▁Arena 119188
▁refuse 119177
▁trăn 119139
▁Kirk 119120
▁Bart 119116
▁remainder 119116
▁Bab 119099
▁dare 119074
▁butt 119071
▁rip 119057
▁155 119040
▁BST 119037
▁rivers 119024
▁noting 119007
▁perception 118996
▁peer 118977
▁toxic 118962
▁LĐLĐ 118946
▁Lò 118935
▁FDA 118920
▁advertised 118916
▁paths 118903
▁thềm 118885
▁Wallace 118866
▁Af 118828
ump 118827
▁nhuyễn 118814
▁financing 118805
63 118798
▁crush 118773
▁Ku 118772
▁Giảm 118736
▁guardian 118694
ader 118679
▁severely 118645
▁Liberty 118639
▁Bitcoin 118633
▁nguội 118592
▁suspicion 118574
▁screaming 118558
▁welcomed 118549
ule 118524
▁alerts 118520
▁Ve 118436
▁Capitol 118428
rest 118422
▁Bloomberg 118418
atter 118416
▁automatic 118409
▁shapes 118399
▁Infantry 118380
87 118334
▁Pete 118327
▁networking 118326
▁Áp 118287
▁Studio 118283
▁fitting 118265
▁Ghost 118251
ways 118232
▁toddler 118230
po 118215
át 118213
▁wheels 118173
▁hometown 118171
▁GREAT 118167
▁Systems 118165
▁desired 118151
▁tracking 118145
mas 118135
▁deciding 118085
rog 117993
▁albeit 117993
▁statue 117986
▁nasty 117985
▁Lô 117973
▁cỗ 117966
▁skeptical 117960
ái 117928
▁Brooks 117917
▁whats 117911
▁dislike 117902
▁str 117902
▁coaster 117890
▁yr 117889
▁ATGT 117885
▁Commander 117865
▁dynamics 117861
▁frequency 117851
▁Tommy 117850
▁Mission 117832
▁spirits 117816
▁Jazz 117801
ú 117756
▁monitor 117734
▁tab 117729
▁agreeing 117707
▁Rel 117687
▁Pentagon 117652
▁Quick 117649
▁Banks 117642
▁Brigade 117639
▁breed 117634
▁manufacturer 117629
▁Iceland 117612
▁Leader 117612
▁Around 117592
lessly 117564
▁nới 117517
▁acceptable 117482
▁MD 117467
▁counting 117425
▁Die 117413
▁giò 117413
▁Phục 117397
▁annoyed 117369
▁Player 117365
▁martial 117360
▁Haven 117356
▁Riverside 117287
▁Mario 117285
▁Count 117277
▁LLC 117261
▁thrust 117258
▁sexually 117199
▁casino 117190
▁Index 117172
▁mập 117172
▁anticipation 117169
▁Private 117161
▁khuya 117145
▁realizing 117131
▁Gay 117127
▁pat 117127
▁coaches 117125
▁Change 117123
▁suspension 117120
▁APEC 117118
▁Austrian 117115
▁Var 117095
▁ste 117087
▁AG 117074
▁gospel 117045
▁bừng 117037
▁bìa 117021
▁Giúp 116992
▁Dor 116991
▁ratio 116973
▁Falls 116961
▁approaching 116957
▁mask 116949
▁Sat 116948
rah 116937
▁Horn 116925
▁Must 116923
▁stones 116906
▁encourages 116895
▁comp 116893
▁ATM 116892
▁thối 116889
▁DA 116876
▁fluid 116876
/2 116871
uff 116861
▁gót 116840
▁noble 116840
▁Won 116821
▁recordings 116771
-2015 116770
gs 116770
▁compromise 116737
DC 116726
▁TPP 116725
▁Chan 116719
▁cattle 116706
▁reward 116701
rich 116679
▁1890 116637
ế 116601
▁precise 116547
▁fatal 116541
▁journalism 116541
▁SU 116500
▁observation 116466
anth 116463
▁animated 116425
▁Data 116415
▁Muhammad 116412
▁muscles 116406
▁operational 116384
▁cau 116380
▁Golf 116370
▁footage 116360
▁Ước 116355
▁Mohammed 116333
aver 116323
▁ruồi 116306
83 116298
▁vấp 116291
▁trauma 116264
but 116263
▁defeating 116229
▁cưng 116227
▁1,3 116221
▁definite 116207
▁searched 116206
▁kills 116203
▁venue 116174
iner 116170
itive 116165
▁clinic 116158
▁Buddhist 116128
▁Dư 116104
▁ye 116100
▁bearing 116091
▁vọt 116086
imes 116081
▁lately 116072
▁usage 116045
▁Urban 116016
gate 116012
▁ann 115955
▁Isaac 115953
▁nản 115953
▁Ngư 115950
▁1911 115925
▁duo 115924
▁Chen 115888
▁DL 115888
▁Def 115885
▁pirates 115877
▁uncertain 115870
burn 115867
▁raises 115857
▁sheep 115838
▁temporarily 115822
▁hoi 115815
▁Zone 115809
▁Chang 115805
▁Quebec 115786
▁uncertainty 115785
▁Ghi 115757
▁backs 115753
▁IMF 115728
avi 115712
61 115704
▁considers 115704
▁chùm 115697
▁dictionary 115688
ested 115681
▁appeals 115675
▁Motors 115672
▁Nhu 115665
ency 115664
▁Steel 115656
▁Leicester 115648
fish 115643
ills 115641
▁UEFA 115632
▁Khám 115609
▁mác 115604
▁Member 115603
▁examined 115601
▁BL 115600
▁interact 115533
▁Brand 115526
▁unfortunate 115521
▁breathe 115519
▁Upper 115506
agan 115500
▁enlightening 115498
▁Palm 115483
▁Mia 115471
▁murderer 115457
LE 115439
▁Rebecca 115439
▁clay 115437
▁john 115402
▁agriculture 115380
▁plates 115379
▁investigations 115355
onia 115353
▁Venice 115346
▁SF 115312
rad 115305
▁div 115292
▁Cent 115276
▁salary 115245
▁nhịn 115233
▁grades 115232
▁scholarly 115205
▁Bristol 115198
▁redemption 115191
▁PP 115177
▁Math 115174
aded 115171
▁Colin 115166
▁Arabic 115153
▁polite 115146
▁guided 115141
▁đũa 115118
AF 115116
▁immensely 115068
▁reflecting 115064
▁Intelligence 115058
▁vác 115049
▁convey 115041
▁ive 115033
▁Đoạn 115008
▁hosting 114996
▁intend 114932
▁Try 114920
▁paints 114913
▁tanks 114911
▁Jeremy 114909
▁countless 114908
▁Bull 114900
rol 114893
▁sờ 114893
orm 114886
,0 114862
▁Cặp 114860
▁1913 114853
▁depressing 114851
▁merger 114836
▁strongest 114824
▁qualifying 114819
▁cart 114804
▁witnessed 114797
▁vague 114782
▁requiring 114763
▁packages 114756
▁Ronald 114739
▁warn 114725
▁Arnold 114708
▁102 114676
▁Sher 114660
away 114583
▁SL 114573
▁sheets 114573
▁hăng 114559
▁1-1 114554
▁Duncan 114545
▁honour 114515
▁lane 114503
▁establishing 114502
▁Nâng 114500
▁liking 114486
▁retreat 114481
▁chư 114436
▁Hỏa 114405
ital 114401
▁Palestinians 114381
▁grin 114373
▁Hungarian 114357
▁Oz 114351
▁Core 114345
▁respective 114337
▁Cont 114327
▁Vu 114322
bank 114320
▁Alt 114306
▁conversion 114306
▁outdoor 114302
▁ê 114300
▁1.500 114287
▁ambassador 114286
▁Yorkshire 114285
▁Wi 114262
▁Eden 114250
▁rhythm 114242
▁Stan 114232
▁predecessor 114225
▁climbing 114220
▁volunteer 114167
▁pig 114166
bit 114161
▁Athens 114145
▁Tải 114133
▁lonely 114127
▁MUST 114108
▁IM 114105
▁graphics 114105
▁curse 114089
erc 114080
▁demonstrates 114076
▁Roth 114066
▁influences 114045
▁rev 114024
▁Caroline 114009
▁pose 114009
▁selfish 114007
▁trends 114003
▁fastest 113993
▁Pres 113992
▁conc 113986
▁bowl 113956
▁dose 113953
▁ought 113949
▁advocate 113922
▁Sarkozy 113911
▁Đời 113892
▁nod 113868
▁affects 113794
▁kn 113791
▁innovation 113782
▁Half 113746
▁toilet 113718
▁bún 113711
▁aging 113703
▁cối 113692
zen 113684
igan 113679
▁traditionally 113670
oke 113660
▁Amsterdam 113658
▁4.000 113651
▁Mystery 113648
▁Kane 113643
view 113636
▁saves 113619
▁giã 113601
▁nhờn 113595
▁gội 113584
aux 113562
▁rage 113559
ố 113554
▁racism 113527
▁gel 113523
▁Geneva 113483
▁cab 113471
▁safely 113466
▁Kid 113465
▁Prom 113463
▁regulatory 113448
nie 113430
▁bén 113426
▁openly 113412
▁submitting 113408
akers 113399
▁Maj 113394
▁faint 113390
▁Abe 113386
▁Anyway 113380
▁Manuel 113380
▁dong 113371
▁displays 113361
▁websites 113358
▁arrangements 113335
▁đu 113328
▁Communications 113322
▁Trail 113314
iah 113298
▁burden 113297
▁nhuộm 113297
▁bur 113267
▁database 113248
▁jumps 113244
▁responses 113228
arts 113227
▁Mời 113215
▁implications 113191
▁stiff 113180
▁Cab 113130
▁nghênh 113121
gl 113116
▁Tem 113100
▁ethics 113098
▁nhiễu 113098
▁1.0 113070
▁Exp 113066
▁Crystal 113063
▁Late 113051
▁trace 113028
▁Trải 113023
▁Trở 113005
▁Rural 112992
▁Block 112990
▁Movement 112962
▁Rogers 112961
▁Khóa 112946
itting 112919
▁heck 112907
▁Armstrong 112905
▁ngắt 112887
▁Universe 112861
ds 112855
▁chronic 112853
▁tụt 112853
▁surname 112824
▁treatments 112815
▁thirds 112814
▁Đen 112791
▁cont 112779
▁Xác 112757
▁Bốn 112747
▁Joan 112736
▁tours 112733
▁khan 112684
▁paused 112659
▁Dụng 112656
▁drops 112652
▁gật 112647
ESS 112644
-2016 112624
▁filmed 112585
▁angels 112584
▁ally 112557
▁lowered 112550
▁lách 112545
▁Ngữ 112522
▁trillion 112469
▁investor 112467
▁Cổng 112466
▁Đậu 112461
▁Students 112428
▁sympathy 112406
▁Cash 112377
▁halt 112364
▁ward 112322
▁Otherwise 112317
▁unf 112294
▁Buôn 112289
oto 112250
▁Awesome 112250
olog 112247
▁Sem 112243
ued 112235
▁ru 112226
anger 112192
KS 112181
▁tossed 112159
▁Nag 112146
▁TX 112113
▁ngậm 112105
▁precisely 112075
▁Cas 112073
▁Je 112041
▁divorced 112038
▁Buck 112027
▁Buffalo 112020
▁Beauty 112011
▁tensions 111992
▁Richmond 111973
for 111949
▁Harvey 111922
▁Self 111892
AV 111890
▁Sheriff 111889
▁scream 111889
▁Capt 111884
ít 111835
▁Hey 111830
▁HTC 111824
▁intricate 111798
iot 111789
▁infection 111787
▁chef 111782
▁medals 111762
etti 111755
▁Kur 111751
eds 111746
▁Honor 111741
▁transported 111714
▁deadline 111679
▁guaranteed 111666
▁neighboring 111660
▁Ottoman 111657
▁collector 111649
▁Ái 111639
▁portions 111579
▁Dạ 111541
▁hurry 111536
▁dông 111535
▁Bro 111497
▁authorized 111482
▁signals 111466
aul 111460
▁careers 111442
▁mechanical 111436
▁swine 111429
▁Ethan 111387
▁Zen 111373
osed 111363
▁editorial 111362
▁wash 111349
▁euros 111346
▁Riley 111282
▁vo 111274
▁religions 111268
▁Jobs 111249
▁descent 111235
▁Tố 111199
▁opener 111198
▁stumbled 111186
win 111172
▁Cuban 111172
▁Mack 111171
▁chèo 111157
▁1/3 111156
út 111123
▁Pink 111115
▁faithful 111115
▁trigger 111106
pur 111078
▁backdrop 111041
▁aliens 111026
▁đôn 111015
▁prep 111004
▁Dur 110995
▁contacted 110995
▁Biệt 110990
▁exc 110988
▁attitudes 110969
▁colony 110949
▁Nav 110926
▁mủ 110917
▁Lind 110906
▁mortgages 110887
▁PL 110880
ury 110862
KH 110861
▁suited 110860
▁wives 110855
▁tune 110833
▁Montgomery 110829
▁Originally 110811
▁signature 110807
▁Eddie 110801
▁boo 110777
▁1908 110750
73 110740
▁Ven 110738
▁developers 110735
▁globe 110715
▁strengths 110712
▁dramatically 110709
▁0,5 110705
▁actively 110694
▁redistributed 110687
▁stance 110677
▁enters 110664
ected 110612
▁economists 110605
▁Od 110603
▁corporations 110599
ipp 110589
▁borrowed 110574
▁RO 110573
ó 110571
▁Rico 110564
▁Edge 110561
▁Yale 110559
▁monitoring 110547
▁hunger 110544
▁VNĐ 110538
▁Celtic 110525
▁rem 110516
▁uất 110516
ibilities 110515
sy 110512
▁debuted 110506
▁grain 110493
▁Ivan 110474
▁Ald 110467
▁dining 110456
▁societies 110453
▁Coach 110450
▁purple 110450
▁Gregory 110425
ây 110347
▁talents 110346
▁portfolio 110321
▁Dad 110291
urt 110268
▁explicit 110255
▁supplement 110236
▁Anton 110183
▁fitness 110181
▁shouted 110181
DA 110156
kins 110153
▁Clip 110148
▁cò 110145
▁gặt 110124
▁Easter 110119
▁Moreover 110082
▁Sierra 110081
▁midnight 110071
sters 110059
▁tphcm 110058
▁prevented 110051
▁honey 110037
▁admits 110034
▁playoff 110034
AY 110031
▁mel 110019
▁Connor 110018
fire 110000
▁mechanism 109994
▁vary 109994
gal 109975
▁wrenching 109974
xi 109960
▁pretend 109953
OC 109895
▁acknowledge 109882
str 109867
▁revolutionary 109866
-15 109856
▁Nicole 109852
▁lays 109847
▁Lib 109836
▁nonetheless 109836
▁dense 109832
▁Ring 109823
▁announce 109818
▁tenure 109779
▁Hockey 109747
▁strain 109737
▁inherited 109714
▁mắng 109699
aba 109698
ips 109684
▁suburb 109675
▁Vinhomes 109670
▁lanh 109661
▁Hor 109653
▁thửa 109647
▁tấu 109637
▁Scripture 109636
▁Offensive 109632
ashi 109623
▁XH 109613
▁Body 109591
▁lim 109578
▁TD 109577
▁nhái 109570
EST 109558
▁Liễu 109541
urn 109539
▁differ 109528
chen 109522
▁curriculum 109514
▁nhọc 109512
▁legendary 109505
▁Ye 109500
▁Eur 109499
▁lén 109489
▁resignation 109430
▁curve 109425
▁Hindu 109405
bach 109403
iding 109393
▁Noel 109391
▁relates 109380
92 109318
▁dangers 109310
▁preserved 109309
pers 109291
▁aloud 109287
▁outs 109286
▁mud 109275
▁vuốt 109272
▁ISO 109268
play 109236
lít 109192
▁engineers 109189
▁heir 109172
▁developer 109142
▁Lower 109132
▁misleading 109108
▁treating 109087
▁prosecution 109077
▁Hộ 109060
▁artificial 109060
▁practicing 108984
▁Pad 108968
ài 108956
▁troubles 108922
▁advocates 108899
▁charter 108899
▁elegant 108884
▁Makes 108864
-2014 108863
▁experimental 108859
▁accidentally 108840
▁olds 108837
▁permitted 108832
▁dolls 108827
▁criminals 108820
▁Mach 108816
▁insane 108809
▁grabs 108807
▁ter 108804
▁encouragement 108801
▁Advertising 108789
▁Roma 108770
▁mẹo 108768
▁underneath 108758
▁104 108745
▁MI 108734
▁bẩm 108724
▁Binh 108718
▁enthusiasm 108703
▁endured 108695
▁newsstand 108687
▁Kill 108686
▁speakers 108678
▁distinguished 108670
▁giặc 108663
▁progressive 108644
▁Somalia 108643
▁anonymity 108637
iam 108630
▁Valentine 108621
▁rớt 108580
▁Coll 108579
▁avoiding 108573
▁ướp 108570
▁KT 108560
▁fold 108549
▁nón 108547
▁xé 108520
▁cào 108511
▁Lloyd 108503
▁Gang 108490
▁Conn 108482
▁violates 108473
ogen 108456
/2018 108451
▁affordable 108436
▁Commerce 108425
▁Ít 108418
▁researcher 108411
▁ONE 108408
▁Section 108408
.200 108384
▁NT 108380
iti 108378
▁skilled 108376
▁Culture 108368
▁tortured 108343
▁autobiography 108332
▁Cúp 108329
▁Want 108318
▁unfolds 108311
▁Saints 108303
▁heels 108297
▁pupils 108285
▁Vui 108277
▁Butler 108265
▁factual 108265
▁icon 108258
▁muỗng 108257
▁convert 108242
▁ate 108240
▁poster 108216
HS 108195
▁Orlando 108168
▁Manila 108148
▁seeds 108140
▁tent 108093
TM 108084
▁Hỏi 108064
▁thản 108026
▁Ev 108019
▁Đắc 107989
yc 107986
▁strings 107908
▁Studios 107887
▁offense 107883
▁McDonald 107882
▁Chuck 107854
rier 107847
▁participating 107829
▁eliminate 107825
▁arena 107813
▁fond 107781
▁Mumbai 107779
▁Minds 107772
▁Tigers 107766
war 107746
▁beef 107746
▁rub 107743
▁requirement 107726
▁regards 107722
▁scenarios 107718
ifies 107707
▁wonders 107703
ael 107694
▁Marines 107683
▁Tràng 107673
▁ki 107637
▁mall 107635
▁contributing 107584
▁Barb 107582
▁Đứng 107575
▁diabetes 107571
▁cinema 107569
▁IR 107542
▁Inn 107532
▁explosive 107522
▁Ahmed 107519
▁ghosts 107513
▁Sox 107509
ware 107499
▁emerge 107440
▁Hugo 107425
PA 107393
▁Casey 107381
▁matched 107376
▁rifle 107375
▁absent 107371
eting 107348
▁starter 107339
een 107323
oos 107312
▁Safety 107307
▁char 107284
▁Publishing 107275
ims 107262
▁Gospel 107246
isha 107244
▁vegetables 107240
▁sacred 107233
▁yield 107220
▁Mand 107195
▁nightmare 107193
▁Đền 107192
▁refugees 107184
▁trap 107183
▁abruptly 107173
▁Copenhagen 107169
▁det 107123
▁Nik 107121
▁văng 107120
▁priced 107119
▁meanwhile 107086
▁senses 107082
▁Fi 107079
▁aw 107054
ải 107052
▁stole 107027
▁civilization 107023
SA 106985
▁Sắc 106980
▁med 106958
▁rushing 106952
▁bore 106942
▁leaf 106942
▁applying 106933
▁nutrition 106933
su 106913
▁Kit 106912
▁assisted 106909
▁discrimination 106885
▁narration 106878
▁villains 106863
▁despair 106853
otic 106845
▁spine 106831
▁hé 106828
down 106816
▁tấp 106813
▁Bailey 106791
▁detained 106784
enberg 106775
▁CAND 106764
▁bubble 106760
▁1880 106741
▁Hop 106739
▁sừng 106729
▁failures 106713
lee 106704
▁casting 106700
▁suffers 106685
▁Wenger 106676
▁rước 106671
bie 106669
aur 106650
▁partial 106650
▁instrumental 106644
▁Volume 106619
▁hormone 106618
▁prosecutor 106611
▁Đằng 106606
▁109 106601
▁Panama 106600
▁peaked 106596
▁Electric 106586
▁Lynn 106584
izer 106576
odes 106576
▁frightening 106576
▁choáng 106546
▁Hào 106544
▁Côn 106528
▁Abdul 106523
▁Thor 106522
▁doctrine 106519
▁ur 106507
▁divine 106504
ple 106499
▁excessive 106498
▁farming 106472
▁gỉ 106472
▁unhappy 106461
▁Future 106442
▁concerts 106430
▁xẻ 106428
▁militant 106396
▁Defence 106394
▁justify 106394
▁Vitamin 106380
issa 106377
▁frankly 106335
▁Talk 106334
▁Chữ 106324
▁overhaul 106319
ieu 106294
▁graduating 106284
▁Protection 106278
▁fashioned 106273
▁Common 106264
▁Congo 106260
▁unveiled 106256
▁Tao 106250
▁continuous 106236
▁Wing 106233
PS 106227
▁pursuing 106221
▁stepping 106219
sa 106209
▁VNPT 106202
▁1,6 106174
▁assists 106161
▁Commons 106152
cr 106145
▁Sunni 106139
▁swear 106124
▁enhanced 106119
▁CC 106107
▁Tak 106105
▁sếp 106082
▁Karzai 106071
▁DR 106059
▁provision 106046
ả 106041
▁excess 106033
▁laying 106024
▁RS 106017
▁thuỷ 106015
▁proceeds 106011
▁altogether 106004
▁Salt 105992
▁accurately 105986
▁est 105984
▁Biden 105978
▁dawn 105972
▁provider 105960
▁plausible 105941
/11/2018 105939
án 105937
▁Viêm 105917
▁deb 105878
▁consensus 105876
aim 105870
▁instances 105851
▁sometime 105847
▁contrary 105803
▁Nadal 105763
▁Authorities 105753
▁eventual 105720
▁rises 105699
CE 105694
vo 105689
▁Janet 105685
▁4.0 105684
▁Fla 105680
▁chà 105665
▁Training 105663
▁disappear 105659
▁accent 105653
▁Ruby 105649
▁Ralph 105646
▁los 105614
▁pause 105612
▁subsidiary 105612
▁Ellis 105598
▁banter 105587
▁Chồng 105582
▁devil 105574
▁Càng 105567
▁tourism 105557
▁Nine 105546
▁vocals 105544
illing 105538
▁Chad 105538
84 105483
▁biology 105474
▁genes 105462
àng 105455
▁Bếp 105434
▁ngoạn 105429
illy 105404
▁spreading 105398
mb 105387
▁Mae 105370
▁travelling 105357
▁Dawn 105326
ees 105299
▁Harbor 105291
▁Lâu 105285
▁flowed 105264
▁Rồng 105256
▁Gill 105250
▁variations 105250
▁bel 105220
▁unrealistic 105218
▁Hopefully 105214
▁Laden 105214
▁Liz 105204
▁guitarist 105202
ses 105169
▁readings 105163
▁pledged 105154
▁nhấp 105147
▁Race 105133
▁Clarke 105122
▁Benedict 105113
▁shifting 105110
-0 105106
▁Pi 105101
▁restricted 105101
▁ngục 105098
▁Atletico 105071
▁thạo 105046
▁Mun 105040
▁applies 105037
▁compiled 105027
▁flooding 105025
▁gân 105023
▁drone 105003
▁ink 104996
▁aviation 104992
▁restoration 104970
▁Advanced 104943
ups 104918
MB 104913
▁mines 104909
▁distinction 104902
▁Inside 104883
▁awe 104860
▁habitat 104835
▁Drive 104833
▁disabled 104825
rov 104817
▁Lar 104802
▁Newton 104793
▁Vốn 104773
▁UNESCO 104741
▁Joel 104738
▁Hòn 104737
ired 104733
▁đèo 104697
▁Sant 104693
▁legitimate 104689
▁durable 104686
▁governing 104674
ced 104668
▁humble 104665
▁wireless 104638
74 104626
▁vol 104600
▁Walt 104599
▁premiered 104576
▁Nghiêm 104570
▁linear 104568
▁interrupted 104563
▁requests 104549
▁Cabinet 104524
jan 104511
feld 104497
augh 104478
▁satisfaction 104468
▁chải 104462
▁stressed 104447
▁cre 104446
▁magnificent 104440
▁uplifting 104432
▁verses 104428
▁Cop 104426
▁relieved 104394
▁Cohen 104391
▁genuinely 104391
▁norm 104391
▁humour 104372
ward 104357
▁Political 104347
▁Sing 104340
▁quí 104300
▁theological 104285
▁Fan 104281
81 104272
▁overwhelmed 104263
▁warmth 104245
▁2030 104241
▁lười 104239
▁Audi 104231
ete 104228
▁Language 104227
▁paragraphs 104226
▁kè 104218
▁newer 104194
▁kidnapping 104191
▁graduation 104134
▁propaganda 104130
▁Kaplan 104127
▁regiment 104110
ural 104105
▁forehead 104090
▁wrestling 104090
▁wrist 104083
▁Eva 104073
▁economies 104068
ude 104046
pr 104006
KT 103999
▁liễu 103974
▁sưởi 103973
LY 103953
▁withdrew 103952
astic 103937
▁xướng 103932
▁Clay 103906
▁út 103897
ò 103878
▁Moh 103878
▁Past 103839
▁Strong 103833
▁stuffed 103809
▁Battalion 103794
▁loop 103776
▁1905 103771
▁sil 103769
▁Nhớ 103765
roc 103750
▁nickname 103719
100 103687
▁TƯ 103684
▁Vel 103664
▁bookstore 103661
▁creator 103639
▁toan 103623
▁Hurricane 103614
▁quấy 103606
▁Trinity 103571
▁lightly 103533
▁230 103523
▁Medicare 103498
oes 103493
du 103492
uki 103445
▁Lions 103436
▁basement 103417
▁Album 103400
▁implementation 103387
▁Lá 103382
bon 103375
▁Historical 103371
▁dimension 103371
▁Maya 103360
ật 103329
▁diagnosis 103316
▁victories 103295
▁upside 103271
▁Lynch 103267
▁Musharraf 103244
▁chess 103235
▁Thiền 103233
▁Seth 103230
▁hedge 103227
▁hyper 103216
▁Ahmadinejad 103204
▁recovering 103195
▁Actually 103178
▁chớp 103169
▁mỉm 103165
▁beast 103154
▁blessing 103152
▁Kept 103150
▁polar 103147
▁Serie 103131
ands 103100
ashed 103076
▁unp 103071
oria 103066
▁invented 103058
▁sed 103054
▁Commissioner 103053
▁Base 103048
▁bio 103032
▁Griffin 103031
▁finances 103020
▁protagonists 103011
▁Case 103007
▁exotic 102998
▁phật 102997
▁championships 102991
▁siết 102984
▁traits 102972
▁Didn 102959
▁belonging 102952
▁eyed 102936
▁rã 102927
▁artillery 102917
▁enc 102912
▁Flight 102900
erv 102879
▁Lớn 102811
▁lieutenant 102800
▁Uruguay 102773
▁quấn 102757
▁separation 102753
▁Leonard 102743
▁providers 102725
▁pitched 102680
▁Cruz 102651
▁Round 102631
▁tru 102617
IG 102607
owski 102597
sts 102556
▁Finland 102554
▁seal 102554
▁Ukrainian 102531
▁bal 102522
-2013 102517
ema 102507
▁Twenty 102501
▁psych 102474
▁endearing 102455
▁Stein 102453
▁terribly 102452
▁registration 102437
▁lighter 102428
rib 102417
ăn 102414
▁delivering 102410
▁destroying 102407
▁bệ 102400
▁Cons 102388
▁scare 102380
▁Nhiệm 102379
▁reasoning 102376
ại 102354
▁hốt 102340
ốt 102330
▁ion 102327
▁operators 102310
▁Bưu 102290
▁Ins 102287
▁Disc 102244
▁Nar 102241
▁fragile 102238
▁abstract 102230
▁absurd 102230
▁unfair 102228
▁Tolkien 102205
▁caps 102193
▁Mann 102191
▁hotline 102191
▁collagen 102178
▁Detective 102176
▁mil 102174
▁stare 102172
abad 102154
▁Stalin 102141
▁EC 102136
ệ 102134
▁gardens 102133
▁hug 102130
long 102118
▁kíp 102109
▁Brent 102086
▁releasing 102084
▁Horse 102066
▁provinces 102062
▁gritty 102044
▁tube 102040
aces 102029
▁1906 102014
di 102007
▁Luxury 102006
▁Mao 101999
imb 101988
▁Ny 101983
▁parenting 101969
low 101968
▁organised 101959
▁premiere 101957
82 101956
▁assumptions 101952
▁Trafford 101935
▁Brook 101934
▁architectural 101916
▁locally 101899
▁fist 101878
▁Pha 101863
nal 101853
▁Neymar 101851
▁mentor 101849
▁Tournament 101811
▁thankful 101801
▁default 101796
▁rap 101783
RC 101781
▁kẹp 101781
▁Luận 101777
▁bride 101762
rum 101759
▁Tích 101749
▁Guinea 101743
▁NK 101734
▁indigenous 101700
▁Tức 101696
▁nấy 101686
▁pol 101655
▁surveillance 101635
▁Nhaccuatui 101623
▁counted 101621
▁maintains 101614
▁Speaking 101613
▁Dinh 101590
▁labour 101586
▁moth 101578
▁Rand 101571
▁posed 101557
▁Miles 101550
▁Everton 101549
▁alarm 101545
▁Xử 101536
ando 101535
▁Austen 101532
▁tho 101528
▁complimentary 101527
▁Kind 101525
▁Baptist 101498
▁Powell 101483
izations 101476
▁Oak 101459
▁á 101455
▁mansion 101444
▁ghê 101436
▁preliminary 101435
▁Derek 101425
▁dialog 101425
iller 101424
▁packaging 101420
ears 101418
ased 101412
▁pays 101412
▁shuttle 101386
▁invaluable 101373
▁checks 101366
▁combines 101365
▁mrs 101350
▁immigrant 101347
▁acknowledging 101330
▁instructor 101325
▁Glen 101313
▁surrender 101299
▁shield 101296
▁economist 101272
▁wifi 101268
▁Spa 101265
▁Ut 101253
▁thrillers 101252
▁Khôi 101247
▁Nissan 101243
▁liêng 101238
▁gasoline 101232
▁TB 101225
▁sparked 101217
▁vibrant 101178
▁Đáp 101160
▁intermediate 101146
uf 101136
▁Ellen 101135
▁competitors 101133
ums 101120
▁Giọng 101114
▁Pitt 101108
▁cheeks 101095
▁kiêu 101086
▁Shortly 101083
▁pres 101082
▁rạch 101081
▁crop 101056
▁triangle 101055
▁sch 101053
▁Martha 101045
ôm 101008
▁Fantasy 101002
ories 100983
▁departments 100978
▁floating 100961
▁aut 100947
▁Fer 100944
▁Krist 100918
▁flames 100916
▁airlines 100863
▁Spider 100843
▁Devil 100823
ọc 100815
▁wildlife 100815
uit 100800
▁insists 100799
ais 100796
▁đao 100789
aman 100788
▁sem 100777
▁chưng 100760
▁Need 100755
▁disappearance 100754
▁106 100751
▁Alb 100734
▁Wu 100733
▁Springs 100703
▁Rugby 100701
▁tablet 100700
▁belly 100696
▁hurricane 100683
▁por 100682
▁columns 100681
▁BIDV 100655
▁zombies 100644
▁WITH 100634
master 100613
▁Christine 100609
▁ebook 100602
▁invitation 100597
▁IBM 100593
▁Evan 100583
▁um 100573
▁Learning 100567
▁Fine 100565
▁Fleet 100558
▁competitions 100514
▁regulators 100502
▁vắc 100497
▁cẩm 100496
▁clicking 100491
▁rổ 100485
▁infected 100479
ở 100476
▁bomber 100469
▁Vietcombank 100467
53 100460
▁freed 100453
▁slept 100453
rig 100441
▁phen 100415
OW 100405
▁acquire 100398
star 100391
like 100387
▁Op 100380
▁hates 100370
▁secretly 100364
▁Ent 100347
▁Cemetery 100345
▁unaware 100326
asing 100319
▁BB 100309
▁cozy 100306
▁Andrews 100287
▁combine 100271
▁Sorry 100240
▁indication 100228
▁devotion 100222
▁Airways 100219
▁Lữ 100214
▁tissue 100211
▁thêu 100201
▁fancy 100195
▁Kil 100176
▁cow 100175
▁Nicolas 100173
▁rooting 100148
▁corners 100140
▁butter 100138
▁rạn 100131
▁1907 100112
▁Harold 100107
▁Broad 100097
▁hardware 100097
▁magnitude 100076
▁Berg 100065
▁scent 100046
▁Ranger 100044
▁customs 100024
▁nuts 100003
▁privately 99989
▁delicate 99984
▁CAN 99982
▁slowed 99954
▁credibility 99923
▁Der 99922
▁Thuật 99921
▁extensively 99911
▁Sor 99892
IE 99882
▁endure 99874
▁anthology 99842
▁FLC 99839
▁Pretty 99812
▁cemetery 99812
▁Brandon 99776
▁Louise 99775
▁Pot 99750
▁phác 99728
▁NG 99725
▁grid 99723
▁Brother 99706
▁sy 99696
▁Hen 99693
▁Bul 99676
▁smoothly 99672
▁Raymond 99647
▁thạc 99647
▁capabilities 99608
▁engrossing 99590
▁Squadron 99581
ảng 99574
▁Suzuki 99562
▁nuối 99559
▁garbage 99539
▁thục 99524
▁nghiền 99518
rid 99508
▁nearest 99499
ews 99498
▁distinctive 99494
mg 99482
▁HO 99465
▁Share 99453
▁Ivy 99452
▁SK 99446
▁nhổ 99424
▁slim 99424
▁ME 99403
▁Unit 99397
▁Chuyến 99387
▁adequate 99384
▁sailing 99382
▁dynasty 99361
▁floors 99357
▁Depression 99347
▁Assistant 99318
▁Protestant 99292
▁exile 99288
▁AF 99267
▁Ari 99264
▁1909 99248
▁insurgents 99248
▁resume 99247
UL 99240
▁Railroad 99234
▁Melissa 99233
▁ego 99230
UT 99218
▁NHL 99212
▁650 99205
▁commanded 99205
▁Grisham 99200
▁quyên 99190
▁Ep 99176
▁grandparents 99155
▁frank 99143
▁loãng 99135
▁functional 99098
▁2-1 99085
▁Ti 99066
▁haunted 99053
▁infant 99018
▁Góc 98990
▁obscure 98978
▁Belgian 98977
▁Shiite 98972
▁novice 98968
▁Bradley 98955
▁Molly 98954
FF 98925
▁rubber 98895
▁Cincinnati 98880
▁Sai 98858
▁Pap 98857
▁similarities 98850
▁assuming 98849
inda 98840
▁Tax 98818
▁characterized 98812
ách 98811
▁Thú 98807
▁Jenny 98804
▁township 98801
ulates 98784
▁hack 98773
▁relaxed 98764
▁tendency 98753
▁Tw 98729
▁Richardson 98726
▁supplied 98726
▁warrant 98704
▁Palmer 98685
òng 98672
▁lữ 98662
▁náo 98647
▁Persian 98615
reg 98607
▁honored 98606
▁utility 98591
▁Okay 98581
▁GPS 98578
▁Editorial 98576
-35 98570
▁panels 98557
ols 98556
▁Sơ 98551
▁Mật 98547
▁candy 98487
ashing 98485
▁Merkel 98466
▁107 98436
iên 98422
▁Aut 98417
▁Florence 98415
▁Đẹp 98414
▁đãng 98397
▁cằm 98393
▁slower 98388
▁addressing 98383
▁peers 98373
▁Pedro 98365
▁drum 98340
▁Mini 98329
▁satisfy 98318
▁accompanying 98311
ading 98298
▁triple 98288
▁pizza 98278
▁suburban 98273
ois 98264
EE 98257
TW 98247
▁risen 98242
▁oxygen 98239
▁lens 98209
▁offset 98187
ouse 98179
▁innocence 98174
▁classics 98151
▁PSG 98147
▁112 98145
▁ĐBQH 98134
ache 98131
200 98116
▁coins 98110
eted 98107
▁freely 98096
▁hostile 98096
▁suits 98089
▁hen 98065
▁adjust 98055
▁Reform 98051
▁dedication 98027
▁boundary 98022
▁trệt 98021
ầu 98016
RI 98000
▁blade 97998
▁shifts 97986
▁xo 97958
▁Eight 97950
▁Abbey 97921
▁stealing 97899
54 97892
▁sweeping 97882
▁crews 97878
▁nòng 97867
▁strengthen 97857
▁readily 97850
▁bust 97846
LS 97835
▁Det 97822
▁navigate 97821
▁Flynn 97818
iling 97816
▁bạ 97815
▁heartwarming 97813
▁licensed 97801
▁sweat 97796
▁assembled 97783
▁né 97779
▁Hat 97774
▁LOS 97736
▁Orchestra 97736
▁treats 97721
▁obsession 97716
▁Mazda 97698
agn 97683
▁Xá 97665
arn 97652
▁LP 97649
▁Abbas 97642
▁Gibson 97629
▁buff 97616
▁conservatives 97607
▁Northwest 97604
▁Manager 97600
▁Dựa 97574
▁cloth 97572
▁Tuất 97569
▁Mis 97567
▁Len 97547
▁abandon 97537
▁111 97518
▁consumed 97507
▁withdrawal 97503
▁Kẻ 97472
▁verdict 97466
▁vôi 97445
NQ 97440
▁ing 97438
▁Sebastian 97433
▁Transportation 97432
▁Lân 97413
▁Glenn 97385
▁costume 97381
▁deliberately 97379
▁enterprise 97379
ăm 97372
▁condemned 97344
▁bob 97342
▁namely 97342
▁Nebraska 97330
▁skipped 97285
▁190 97284
▁inclusion 97280
▁Peterson 97276
▁chốc 97272
▁Start 97263
▁1870 97257
▁neighborhoods 97254
▁removing 97226
▁prey 97211
▁đả 97207
yo 97197
▁Finn 97197
▁elder 97196
▁loét 97188
▁Dao 97183
.000.000 97172
▁Holland 97152
ạ 97150
▁compelled 97150
▁myths 97146
▁dê 97138
▁Vài 97132
▁Dom 97103
▁Dần 97102
▁proportion 97099
maker 97083
▁Anti 97059
▁300.000 97056
▁blowing 97038
▁Baron 97026
▁finale 96995
▁autumn 96977
▁playoffs 96961
▁bra 96953
▁jerk 96946
▁Inf 96934
▁amazon 96921
▁Eco 96912
▁gonna 96911
▁bonuses 96903
▁outline 96894
▁academy 96876
[...]
